node {
  name: "x"
  op: "Placeholder"
  attr {
    key: "dtype"
    value {
      type: DT_FLOAT
    }
  }
  attr {
    key: "shape"
    value {
      shape {
        dim {
          size: -1
        }
        dim {
          size: 28
        }
        dim {
          size: 28
        }
      }
    }
  }
}
node {
  name: "sequential/flatten/Const"
  op: "Const"
  attr {
    key: "dtype"
    value {
      type: DT_INT32
    }
  }
  attr {
    key: "value"
    value {
      tensor {
        dtype: DT_INT32
        tensor_shape {
          dim {
            size: 2
          }
        }
        tensor_content: "\377\377\377\377\020\003\000\000"
      }
    }
  }
}
node {
  name: "sequential/flatten/Reshape"
  op: "Reshape"
  input: "x"
  input: "sequential/flatten/Const"
  attr {
    key: "T"
    value {
      type: DT_FLOAT
    }
  }
  attr {
    key: "Tshape"
    value {
      type: DT_INT32
    }
  }
}
node {
  name: "sequential/dense/MatMul/ReadVariableOp/resource"
  op: "Const"
  attr {
    key: "dtype"
    value {
      type: DT_FLOAT
    }
  }
  attr {
    key: "value"
    value {
      tensor {
        dtype: DT_FLOAT
        tensor_shape {
          dim {
            size: 784
          }
          dim {
            size: 128
          }
        }
        tensor_content: "\212\234O\275\304\262\244<\316\021[=a\323\233=\204\310\343\274*~`=\260\311\230;\374\275\327<\364l\217\275\010jg\274\300B!\274\200\3139\275\330+\220<\034X\241\275H|X\274nU!\275\2005&\275\350\344\006\275h\235\r<\214m\030=\340\225\006\273P\t2<\000\305A;&kI=\270\007\233<p\307\244\275\274@j\275p\261V\274 \335P\273\"\266h\2758B\316\274}{\202\275\240\277\367\274:\302\240\275\372{O=\360\362\225;\332\311\246\274\332\213|=\375\177\233\275\tUc\275F8\355\274\010wi\275\035\230\235\275\253B\233=\265B<\275\204\222\303\274xR\213\275\003\336\201\275\\\264C\275\337A\230\275V\006\224\275Pn\236<\340W\224;\305\025\217=\305\n\032\275M\024\227=Xc\027\275\240\024\016<r\373D=\340\272H\274\020\334L\274\364)\222\275U\010\230=\220@B<\350Bv\274\222\211q\275\300\356\264<\241\003\241=\330ZS<\003$\237\275\000\305\3209\276\356n\275\032\322\327\274\030*!=0=l<\300\211\275:k\264\216=~\261\342\274dX\017\275o\016\242=\306uI=,Y\037\275)O\244\275\330\203\206\275\340\301\363;\006\251|\275\314\343\222\275`\2050<\264+\"\275\276$P=\245\311%\275n\353\024=`\217\036<\316\265D\275{\334:\275\224b\365<\366&b=\212QL\275>M6=Pe\373\273x6\002\274Bd4=\016#\274\274\335I1\275T\035M\275HJ\360<\013-\t\275i\r0\275z\376\362\274@\374\206;P\301F<\035\'\244=m|\201=\316\360:=\322\002S\275\022Y>=X\216\034\274\340\330\034<\213>B\275\224\217\312<]qC\275\357t\237=(C\234\274\276\272C=B\nR\275\300\036\302\274(y\022<\305\003\220=\014\377\244<\360\r\222\273`\321\330\273\370\307:\274Fm2=\311\222\220=8\227\016<\\\242\212<\367\367\215=\036\211\354\274m\017\201=\302\246\031\275\317\373\032\275\366D\013\275\'\265\223\275PR\273\274H.*=\325\323\232=\244\177<\275K\217J\275`s\326<v\265p=\001\207\244=\nD\037=\202\230Z=\335<\204\275 \276\335;\nP\032\275t\350\334\274\250\217n\274\322)-\275\000\345\3249rL7=\036\266\005\275\366\245-=\346\315d=p\275~\275\"u4=x!(\274\270\007G<\362\233\t=VJ\372\274\350\010U<\337 \217\275#\352\237\275N\331P=\321\364E\275\200\247\356\273\030\356\244<k\374\245\275\354b\033=o\331\240\275\223\351\222\275@Ao\273\324H-=H\245V\275j\341&\275P^\373\274 \232\205\275\200\274F\272\250\264\276\2748\317\332<l\364\344<\360\247)\274x\331t\274\340\357q\275\007Y\204\275\336\204[=\360^O\275\361\020\211==\177\235=q\007$\275\245\377\205\2752\355\r\275~}Q=|\373l\275\350\2154<\260\345\263<\212\240\017\275\021u\230=\274\265\233<\345\270\241=\350\026\237<Z\273\006=\030-\007\275\303x;\275>\352\245\275\214a\364<\304I\207\275\276\200\224\275\000\243\261<\3222{=\370X\'\274\204\323L\275\272\244\334\274t{\032\275d\250\236\275\305\321\231\275\266\372N=\376\277\234\275\3340\224<\201t\241=Ns\"\275\300\241B\274\377n\202\275\233\016\033\2750u\311<\020\363n\275\200\016\320\272\355\207\212=\321k\235\275\217(\223=@9\370<\0237!\275@\274\217\272H\0166<\346\243D=Q\251\031\275\312\004\014\275\272\'{=N\033\025=\360\271F\274\2202\200<+\006\216\275\362\017\030=@\0368<\237Q\216\2759\274\212=I1\224= k\305\273\367y\224=S\236\211=U\332\206=@\344\023;\270\002(=\362AM=\366W$=Q\017\231\275\360\177\223;\214\226\036\275@\253x\275\257}\237=\032\013\337\274\216\205N=\244g\013=P\020\266;jJ`=\344\034\366<\000;9\273\340\022`<\030*\177\274\300\331\323\272wf\234\275\251In\275\342$:=\340\347\257\273\030g!\274\230\320.=\322M\007=\374\211\266\274\240\231\273;\304\227\371<\022\231\003=8u\304<(\2642<%\227\243=h$\020\275\\N\220<\277@H\275P\r1\274\334\233\364\274@\322c<N\177>\275!\n\217=\256\034x=\210$\357<\\\375\271<\200P\354<\275\243\205=FY\312\274\232\004>=T\t\377<\260\224\351<\332I^=H^\370\274F\r\312\274\244\n\202<\256>6=R\270O=\254:q\275\360\213\n\274\252\250\000\275\000\237\305\272J\305\233\275\332^F=x9\206\275h ^\275\000U\214:\347\245c\275\374JD\275X\241g\275\020\024%<@\037\315;\000\206\234\271\312\314\023=\333g\003\275f/\224\275\014\333\033=&\356@=\373\305Q\275\367\316\233=\224\374!\275\242I\020\275g\014\214=\2303\236\274\233\300\037\275\3726I=\035\033\210=\200\247C<@\233(;\024L\202\275\363sA\275@\032\356\274\301\226\245=&\227<=&\014/=\235\251\210\275\036\213Q=\254A\377<\275\224\210\275\300\272\371:\377\365\215\275\252Az=\372\257~=\250\264\327<\000>E\271\360oM<\300\224\231<\342f\334\274 \251\274<\000\363]:\354\272\014=\232\023H=\216v\221\275\027\000\204=h\346\n=\262\311\000=@\264\300:\2058T\275\340\014P<\230\227\241<n\245\001=\216D\n=Pw\021\274F\274+\275K\201\234=\245\214z\275@q\032\273\370[\022\274\360\004\030=\242]h=w\233\215=\334\303\256<\211\270\200=B\023\201\275\264\356\223\275g\200\213=h\311\336<`\350\n=:\243\226\275V[q=\234\203\325<\332\363\217\275a>\240\275\224_\217\275P)\017\274Qh\231=\\\363\247<_\277\212=\246\337\207\275\264x\340\274\363\372\210=\234\037Y\275\300\351H\274\303\r\225\275~\207\000=\201G\205\275\321\216\203=\351\224\223\275\310\006(\274p\216\334\273\022\020\037\275\364\220\006=\336\016\327\274\356\025\230\275I6\214=@\236\234\275\242\032\213\275\272\347v=\"\2634=5O\215=.\0065=\256\n5=\210V\t=\232$\026\275\n\214\310\274\220D\370;0\013\353\273Po\276<\224G\354\274n\025i=&\303h=\000\024\020\275(\314\202<\372\217\020\275\'s\211=\024o\334<C\002|\2756\211\021\275\220\010\352\273~\307`=\224\023\203\274\240\006`\274\034\260\325<\350\376:\274p\352\334;\260t\334\273\036hn\275\200M\024\274\2252\223=J\373\200\275h\351\361\274\274pN\275\200\004\213\275\305 \243=L\205\255\274\310 \307<|\232\356\274\222\237\216\275@\263S\273`\306\014<d\205\023\275H\364O\274ow\202=\276\t\002=\nr\'=\200\177\205;@\177\025\273{8x\275\3529]=\035\326L\275\031\357\203\275@\005\376\272\310a\036<\300#\316;0\271,<\350w\236\275\344.\312<\232\005\234\275\020`\311<\323\237\243=4i\272\274\326\376\224\2752\352E=\310\265\371\274\210\222\212<\304\327\\\275 [6;\000\260\350\271\374\217\301<@\353s\273\014\266\313\274P\375>\275\260%\312<\"A\267\274\022A;=\260\247\234\275h\300m<Tq=\275\242\177T\275 \321c<\340\255\261<H8\331<\340\337~<R\363&\275\361\250\222\275\030\255\257<\247\241\233=Z\342\r=\202\224*=B\032g=\214\221\231<\311s\215=&E~\275La\215\274U~p\275\243!\240=\033d\234\275\014$\037=\330\255\217\274\360\307\373\273\n\217\004=2\337H=\202\262S\275@x\255\273%\307V\275,\267\027=+O\234\275+\307\206\275\360X\360;$\215\215\274K\234U\275\373\264\226=M\362p\275\276J\004=$\243\362<\233\027>\275\370#\037\2746\224(=\222.\031=ET\200=\n\326\177\275\244\323\324<\016\221X=t\324\245<\302\360`=\324\240\"\275&m\212\275\344\014\252\274&\336\205\275\364\217\373\274\334\341F\275\250\305\211<\370\000B<\203A.\275\"\300\004=\226d\021=\010\321#=\364\220\243<\024\276\372\274X\003A<\021V\231=\3367B=\207\333\235=\000\211\360\273D\264\357<\326\364^=`\226\023\273\226=\001=0 \303<j\247p\275~\200N=d\236,\275\373\350\210=\030[\351<\300\206\240\275\336\357P\275\320<\035\2757\t\215\275\370\326\337<\3246\244\275\036\324A=a\006\215=\030\241j\275\260o\365<\323G\010\275xw\226\274\374M\234<\200\350\205\275=\204\217=6Vy=\001\306\216=.\201\037\275\220\033\222\273\310|\241\275\000\263y:-\246\202=;J\210=\034\365\275<\276\303j=\260f=\274@\005\214\273\247\221\204=\200\234\025=J\0256\275pM\017=\000\311n<\000 \306;\357\205\224=\234:{\2756J\021=W\263\245=!\373c\275Y\215\217=.g0\275x}n\275\210\243\274<\200\346B\273\320AW<F\262d=R\334\014\275\262\351\317\274\334&\211\275<\277\213\275\362\227\014\275#;\220=\034/E\275\201v:\275\364\322>\275\340\020];^;5\275\322\241\177\275\226\326\346\274\3010t\275 \342o\274D\365\211<\263\r\223\275\310\351\260<\000\247\275\272:^V\275/\"\224=qz\207=\300\211]<X\246\013\274r\352R\275\360\267\366;*3\324\274\200\r\344<\241\002\214\275\216\2450=`\024\213\273\264\020\370<\372\017h= \245c\273\221\200\220=6*\347\2740vt<\000?\304\271\031~\245=\214\301\304\274\276\305\326\274B!7\275\332\375o\275R1<=\355\233\\\275\200\002\t\273\343\317!\275\202\223\361\274\234t\364<\230Dq<\033\016\223=\320B\244\275\226(==\300\311\346\272f`A\275,\332\225\275\224|\214\275,-\000=\260\006\030\274 o\241<B==\275\202\225\206\275\266\264K\275\010\001f\2740\352\020<\214\362\255<\334\225j\275F\215\217\275\225\365\223=\300\351\035\274\264\234\320<\325VW\275\207uV\275\345T\225=\330\202\353\274\357\177\206=.\221\221\275\246}j=2\351%\275\340\347\'\274\027=\201=PR\231;\220\036q\274\340\242\230<^1-=15\223\275\213\000\231\275\311n\200=\250$B<\230+\205\274\234J\327<\216\0244=\200\026\031<\360a\305<\246\327\'\275l\200\023=,(\370<\254\210\200\274\260L}<\214\321\031\275R7\245\275\273j?\275c\215?\2756\017e=\026\212\344\274\240\2722<\022\0224=\242\241\004\275\302b\207\275P\341\354;\035\323\223=\tr\210=\323\364\241=h\300\212\274L\355-=\236\371@=n\274\037=*\327+\275\327\331\211\275\206Zv=m\361\226\275\276\020\025\275\262\335K=\t\305\202\275\232\027z=\234\007\360<\314\031\326<\376\377\202\275\254\244\214\274o\215\022\275`\234\027<\313\246\224=\206mT=9\223M\275\351\030\243=\300$-;\310\272\304<f\370K=\272\'\232\275\3166l=:\330l=\212\277q=\200\311\006;@\331k;\330\016\204\275\373\302\205=0!R\274p\177y\275(\017\273\274\332\367]\275\205;\220=\356\315-\275\216\021\013=\002iC\275L\352\251<\222\026z\275\000-\271\271\200[D\273v-\211\275\227\024\237\275\365\262\020\275\227\325\220=h\3363\275\222\215\321\2749\221`\275\325\304\234=\006\247V=vFA=\200.[\272\227\223\237\275\376)\322\274\"Xt\275\254q\221<&\332f=\220\"\315\274\330\264\353<s\016U\275\243\037%\275\364>\374\274\246\334\020\275\305\345\234\275\215[K\2750\320\346\273\270\254~<\310\227\025\274v\262u=\027\224\212\275\340e!\274\240\206J<3\257\211=\300\224\027\2749\274\216\275.j\001=#\366\242\275YD\232\275PUb\2754\010\205<R\351\207\275\252Yh=KXP\275\250\027#=~\332p=\202\272`\275n\237\236\274s\301\201=\231\271+\275\177F\214=\253\330\244=\355N\205\275l\024e\275\244\361\315<v\"G=\325\323\037\275\025\307\242=P\3545\274\236\200g=f\210\002=\374\331\200\274>\364\335\274\"\253v=\260\226\246\273\216\214X=\366\010I=l\250\035=\360\303\264\273\3541\200\274\324\010\r=\010\302y\274j.~\275\225b\230=@\233\244\272\302\210\251\274\355\005\232=@\022\260\272[|\227=\374\022\207\275\301\024F\275\240Ei\273\335L\244=\020\217\214<@\316\352<\036\325(\275\340\233\264;\300u\\\273\030\016\276\274\360.\006<t\005A\275\252S\242\275\\S(=j\235h=\206\3646={\276\025\275Da\356\274\242+\n=\022\240i=\326Ur=\343\353 \275:\305^=\377|\227\275j\211\322\274\252N\213\275\016#@=\037\202\213=\230\331\225<=\240\203\275%\016\021\275\200k\222:\360\364i\275\264\230\037=r\313\017=\204T\226\275\032y\351\274R\204\260\274\000\270\3118\350\201\002\275\220e\n=e\211\025\275>\005\\=\240Of\274\362\202\316\274(\376\206<\202\036\r=B\224P=-\364#\275\276{\r\275\202\000H\275k\312\227\275\010\330\354<t\371\203<\260f\261\273n<\236\275\346\232I=t\223\244\274\231V\217=$y\277<\020\207\017\274\001\260\212\275\257]\010\275o!9\275\r\246K\275\302$Y=2\"\312\274\316|V\275On\227=@\315r<\014S\311<@\247\344:F\352&=2C_=\327\337\210=\320*\223\273,\320\336<\020\014\006\274v\232{\275\261\372\244\275\207E\203=\"\006&\275 \036\010\273\330MO\274\036\n{=\375\324\203=^\316\241\275D\270\222<\254\002\352<{\223\202=\364\036\340<\td\200=\2218N\275)\261\227=\007\2315\275\350\031\310<\2460\010=j\234\205\275\257\325]\275\31664=\022\\#=\022+\221\275H\326\245\274@\0341<\235\020\t\275\320o^\275\322\033+=*\211`=\210\363\031=J\371<=\362\t]=l)`\275\322\2576=<\225\030\275\364\035\205\275\255{\203\275\022\260L=\302\003l=\224\221\311<\030\261\025<\250\016D\275?\352$\275\026\203R=\213\245\222=aN0\275\007\313\231=\254\374\356<\307\215\233\275\234)s\275X\177j<\007/\243\275\354kt\275\300\373\214<\370\225\"\274\345`\215\275\006\207\223\275\300\0014<h~\203<x\344\245\274\334j\244\274\316\031\237\275\271\215\221\275K:\234=h\252N\274\365\212\236\2758\273\250<\365\310t\275\n\0328=<\234@\275\211\016\016\275\310\246b\274Hs\214\274#\230\n\275\200\344\344\273\014tD\275j\rc=\212jh=;\350\210\275Au\240=@\230s<\220\347\270<B\342=\275\322\226\000=\240\332\005\273\274\230\351\274\217{M\275\322\351H=\300\2239<2\224\202\275\210\035\346<\266\271{=\356+\177=l\262]\275\000\3501;\231\340\223\275\226\022|=x\323d\275\260\030\272\273\261?\221=\326X\004\275*\005\274\274\020\036)<\nSl\275\365\033\234=P\006_\275@o\271\272\310\\\260<\222\306\025=\0106~<\322\236\330\274 _\203\275 \372\371<(\014\255\274\252/B=p\200\200\2740\326U\2746\352,\275*\337\177\275\020\356G\274W\332\024\275\302./=3\035\203=\240\027+<\000p=9\300\"\002\274<\305\025\275&i\206\275\352\223i=\240\373<;l\230\204<\212\035U=\356C\213\275\305\306\002\275\255j\007\275\2026\214\275>\247 =\356Z\002=\255\005\215\275%\242\202=\246zx=\310\0131\274\202\304\371\274d\016\n\275\240\352\372;[O&\275\333\235G\275\300\311\036\273\260`\377;\216O\355\274\202\005B=\232_T=\002\212\000=\037K\234=\252Xj\275|\337\373\274\302Sj\275\257\322h\275<\247\227\275\211\\\211\2758AY<\256\231`\275\232\326:=.\366_=\200\373\366\272\236\206\003\275*\327\363\274*\216h\275\305\r\203=\000r\343\271\025\025\241=\267\016<\275\262\203\361\274\330\277B<M\202\205=\320U\352\273\352\246\342\274\352\"Z=\225\316*\275\346\'\217\275!8\234= \225\200<.Lo=)!\240=\373\035\213=\200\034\266:4\323\265\2742b\237\275\300\026\265<\212\0016\275+\016\236\275\245\357\221\275\274a\362<\"cV\275\356\032\177=\017\233\236=\366\020*={c\207=(\220m\274`K\222<\240\313\217;\200\315B;x.|\275l0l\275\256\373F=\204\333j\275<5\355\274=2\210=Zz =\336E\331\274CZ;\275\206r\022=\346\221p\275\000\013\375:\000\201\224<\006@m=S\335\016\275\216a]\275z\216\027=|B\207< \210(\275\220\246V<\226:\216\275\002i\307\274\006\201\301\274\260C:\275\020a9<\376\304a=\027H,\275\213\3645\275 \320\020<\325\033\221=\364\373\222\274\233\301\234\275\325`\211=\3746\273<l\371\205<\243\237\225=\244y\253< \303\221\273\3615\214\275\022+\237\275\300\346_<\346\344i\275R\243;=\200\373\366:\000\202\350<\340_\361<\303\022[\275*\225\036=Vyd=P;\355\273-\204\203=\337c\203=\360\234\225\273\026aH=\000n\330<\370?D<H\n\304\274p\264\205\274\206\tv=v\005l=\260<\205;\250N\366\274@\035\305\273\250\2226\274\036\346m=0\270\302;\227X\200\275r\032\243\275Y\377\202=*\362|\2752^\306\274\312\256g=A3\237=\340\\+\274\312lB=\014z#=J\330\261\274\033\361\233=]|\211=\363n\030\275s\335$\275\260\2475<\341[\241=\243\226\245=A\242N\275\200\233i<\272\370\001\2750\010\303\273\307J\211=\320\304\213\274\277\301\211=\276\201J=\357\211\232= \360\326\274_sC\275\302\021x=\236KM=>\323|=\3603\002\275\316U;=\234L\341<\033\337\211=`\\\201\273\332?\211\275\277x\240=\333?\241=\303T\214=O[\227=,\315W\275\376J\027\275\031\235\"\275\220\014\301\273\224\007\257< \276$=\214\264\275<\373<4\275\000\357\220\274\000\010\251<!\310\212=\336d\202\275p\334{\274\3714\241=\000\332-\274\004\330$=\326\360V\2754\0108\275}v\234=\222\2378=\220\016\324;\260\235\312\274\022Y\212\275~\0064=\000\367\3449`+Y\274\370 \303<\340\357\353;\021\267\013\275\222Jd=@\325\337\272\nJw=2\231h\275\334B\235<}\003\232\275\320\244\'\274\023[&\275\336\002\200\2752\0249=j\353&=\3407&\275\036\271_=\210\306w\274\200\360\277\274\376\373%\275\230\370#=s\327a\275\315`\240\275\2106\031<Y\330\225=\224:\345<\362En=x+2=\332K\025=\222w\'=\236YF=\025\3424\275@\355-;\"xE=Fk==\350<\331<\200\022\257\272\310\276\030=\2047\237<\010\221\277<\337\225\235=*\374K=D+\275<\220\271\363\274\365\345\002\275\376`\201\275z\034f=ow\207=b\340\\=\260q\246<\242\337u=\233\342\243\2756\320\013=\335\307;\2752\\R=\302x\023=\2640\031\275DE =\301\310>\275\026\242\002\275\310\260x<\023\340\231\275\210\206\024=~\016@=\307kL\275\026MC=\270\362\237<x)H\275\240/\004<~\345\230\275\240s\025\273\t#9\275q\251\205=\276\330Q=_K\202=F\266\220\275\000\340\025\271\250\337:<\0005\321:`\266\235\2756\331\'=\"Y<=\223\275(\275\215\272\235=\002Yb=\024 ~\275\346\260y=\304\024\236<\302\313f\275t\325\n=u\010\023\275G:\201=goK\275H\303\225\274@\330\267\272?\223\230=K\343\210\275\375^\177\275\204]\226\274\301`\241=\375\226\214=\300\260\227;\324\244\235<<\r\215\274TK\224\275\340l\204;\346\306\274\274\375\216Q\275oC\245=\260\274\342<\340 \001=`\260\204;\320G\226\273\370\253\353<\222\240\034\275=\342\245=\000?\365:(\034+<,\240\001=\036>g=\342\357\354\274\354b\215\274(\3506\2756v\203\275\272\274p\275|\247<\275zMh\275P\216\203\273Wx\221\275\025\2075\275\200B\347\274SWJ\275\357\253\210=\000\333\032;\030\277p<\240\021\317<\030/\233<8\004\200\274\370\346\307<\376\010`=\260\r\360\273\3003Q;\001 I\275\245p\224=k\313\225=\327Y\204=\017\214\236=Xnb<,\264%\275\274h\276<\276\340\005\275\020\303\355<\317\242\233=\227(\025\2752\306^=\264\255\240\275\372Ay=\235s\206=\360\366\341<A\ng\275\177\014\224=x\331+<tI\024=\232\240o=\300z\320:\000\304\347<\242\241z\275\216JC=j<`=\010^\224\274\253\035\217\275@\361\323\272\350\323D\274p\363\223\275(\246\264<F\252\225\275Z\001\322\274\352\230t=P\276\273\273\3011\221\275\272K<=\354\343\326\274\030\037]<\316cu=\340\271\022\274\220\207\340\273(\225n\275\340\347\324<Z\233[\275\275\014\014\275/\035\207\275\312_J=3P\225=x<\241\275\346\007x\275\232NW\275\027\274\233=\\)\231< \205\316\273\000\310\030<\276l\343\274\276\217Z=\240\034\345\273\240\027\017\275\230\255$\275;\355\221=\000\204\2358\344\0006\275\032Ve=6\002\301\274\314\251|\275X\027\221<t\262\030=\256\235\014=d\263\025=\355q\005\275,K\376<pu\341;F\255\350\274\210\027\302< Wl\273%\307V\275\004\177\016\275\204\212\232<\000\240\272\271\"TR=\320\254\303;\nY\022=\010\r\266<\352FK=\262\2360=\345xa\275\336\035h=.\337\\=h6\337<\025\231\233=f-z=\1777\220=\210\261\013=\234\000(\275\005\334\217=\263\337\204=\224\330\222\274\0004B\273@\255\267<\207\253\212=\324i\376\274\017\364\225=~\267{=n\333\002=\2600\301<\270\230!<\224F\371<p\213]\274\200\026U:\242\000\001=17\204=\207\'\233=O[\235=\245\246W\275\230y\224\275\024\233\262<\264\361\216\275\217N\347\275I\337\026\276\207\203\334<\227\272\372\275\370Wb\275\036F\223\271>\362A\276\'o\335<X\221\317=\245\353\266=eo\310\275\240]\230;\237\306\037\275\353\226\021;_+\241=\343\265\032>m=;\275\271^%=J[\037\275\032Ux<d\307\366\274\220a_=\261^\257=p\305\301\274\030?\003=\333\272\244<r\227_=,\305L\276\031\242\312=\343@Z=\305\204-\274v#\305=\304mg\275\177\233\t>\250\371\252=\024\331\370\274\320\\\232\2738/\216\274/\321\226=\025\312\036\274\317V\251=\320\335Z<&\250Z=\017\271~\275\300z\227<\330\200H\275\226G]=L\353\177=\314\025P\272\270(\306<\265\250\207=be\225;\312Ze<\227\315\252<\221,\023=X+:>\266\273:\275U\335\200=\244\354\220<T\002+\276u\325\037>W\004\206=\264J\024= 6\013=&\240\372\274=q5\274\352r\342\274\246\272\017>\013\332\270=Z\331\276\274;-.\273\360\325\251;4\352h\275\342\222\215=\325\2312;p,2<\272\274t\275H)\305<\333<\236<h\222\026=YM\203=\317\275c\275\220\375\\;\216\010K=9dd=\212\344E=E\204\367<\003>\246\272\222\240\305\274\354O\216\275\010\022\321=\223e\220\275\237m\230;\322\037m=.>R=\2766\236=\200\020\365<\002Z\253\274\325\026R\275\302\222\302=\327\243\227=\273u\237\275<\374\363\274`\342\272<s\370\227=\334x\335=\014\326\371=H\272`<2\253\330\274l\212\033\275\301\241%>pv\312<_d\351\274\000\321\257<\351\375\240=\326?\034<X\220\333<\377G\023\275\300\177\\\275\366\177Y\275 \334\200<\376\004E\275\022x\251\274\201\255\242=]\372\245=9\252\245\275GO\373\275\251\314\t\276\262\004T\275\215@/\276\273\332m\275=\026\307\275h\030\006\274!\335#\274\222\336\302\275\264\350\342=t`\337=\207\303\000<\t\343\017\276\211\351 \275\213}#\275\237Z7=p%\264\274\361\026\266<\330\032\013<U\377V\275\316\002\313\275\026\344\025<*\1777\275\235\230\257=\323O\342\274L\n\013\276\370\320\202\275T\006\314=\000<o\275\214\232@\276\221\t >Gy\344;\356\277R\274l\356\021=.Q\024\272m.\276=\010l\r>@:R;>\375@=z\363o=r>8\275\365\273\247=26>>\022b\361\274\253\351\243\275\027\014(\275\036\204^=\300\014\327\273\002m\001>\016A\347<#6\257\272\\\002 =N\346\021=\206\361\217\275kg\216\274f\256\317=\251-\347<\270R\241=7\200\253=\271\246\322\274\300}\311\274o=\257\275\001d\360=\321@\226\275+l\014\2756\317\227=\246\332\016=\347\222\251\275\253\r2\275\020%\016>\206/b=\305.\n>Ur\307=\000\032\277\272\264a\"=8\267\334<]RI\274@\236\201;\260\201e=\353G\242=\220\261\344<\2231\232=\251\016\030\275\250\023\215\275\337\276l=`\312\251<9*\346=\350\376O\275lF\022>\240\230\263\274}\024\216\274\202\305\372\275\222\231d<\232*L=,U\r\2735\255\314=\230\223C\275<\341\307=\312\375\220\275 \341\022\274\211\252C\275\305\234\003=M&\254=\231G\210=l\000\263<QF<\275-\226\375=pb\373=ev\302=\324/\034=\257\303\211;X\243\217\274\367\347\255=\366t==\233\355\217\275\037V\226=\260\355\265\274\217\243b= 8z<\023\211\266\274\027N\241\275\255\037\005\276\2429\315\274O6%\275\205\204M\275\2352\276=\213\3056\275f\305\256\274\211\217\310\274\346\262?\275\000`+=\356\202N=\221\246\266<\240_{\274\234\360\247<\224Bb\275\236\2177\275\342\246\345<\344\225\227\275\000%.;\r\274D=h\316\276\274\365*i<\314\304\221=\250?A<p*\311\275\310\324\213\275+f`\275\240\327\341<S\025\020\275p\365\202\275\260l\301\2758\010\224\275\250;0\274\000G\t<={\251=@o\244:E\227j<\306l\337\274\033>\233<9\260\324\274f\303\317=\354\271\360<\004Mn\274\347_\027=\200\271=\274\220kY\274Dp:<\320\203<<\363\217\240<\351\230V<\343d\242=\273\252}=7T\363\274@\342<\275\335x\226\275\215o\216\274\300\357\361\274\376\245\254=\216\373\021\275\331?`\2754JB\275p\257\310\275(\342\225\274\351\022\305\273\241\334\225<\227/\236\274\032\360w\274\367\316\226\275\177U\220\275y}5=\200\377N<\002\230 =\252\022\023\275x\227\206\274\241x\303\273\242\271\263\274\022B\027\275\350\355\222\2758t\245<#\337\240;\204\305\325<Xz4\275\265\363\210\275\271\237+\275x\2551=\272\330\211=\361*s\274\214\344a=\332\021\211\275\025\271\223<j\251O=\322\325\017=B\365K=\203\330\306\274\327\340/\275\300w\305<\2575z=\253nh=u,n\275\364\0165\274\346\300\356<\2401\255\274(2N\275\340\366\216\275\010\300\010<\021=\037\275\310D\001=\007yN\273J\006O=\244s3;\225\370\240\274\345\200\235=O\332a\275\270w\213;\254d\005=\020m{=\335e\206=\211\316M\275\246\3511=\376a\350<\264F2=\210\247\237\272<\226A=\200\333\376\273@Y\002\273Ptc<\377\337V\275O0T=\026e`=\020\033\n\275b\024\216\275\014^\314=TM\006\275\020\271\346<cI\241\275\027\272\201=\217\234\312<s\323k<X\266\'\275\213\250\234={\033\036\275\023\214+\275\000\352\022\271\306\331\232\274\234\260\026<\004\034\014<`\243\345\274\325\206)\275\220\261\330<<@\242\274\277\356\253=\231\3175\275\026\025\007=\273\255C\275\343~\023\275\256\237\031=\270\272\203<\022!c=\366Q;=\214I\233\275\364[\234\275\024\215\324<\371O\201=^Tz=\216\223\323<\362S\377\272\230t\206=\241\026t<\021\323I\275>\360c\275\006>\310\275Q\215\341\274\320\317d<\224\335\214<FqW=3\322\205=\364\020\270<e\037\216\275\363\330\226=j\025E=t\274\010\275\220\210f<~\200N=\340\270\265=\270\275\201\275\342\370z<\037\233\360;\240}\236\275gm/=*4\210\275 BL\273>JP;E\346\014=\317\255\240\275t\352d\275\024\241\214\275\357\227\214\275Id%\275\310\233\200\275\356\342\275\275g\245\265;O\316\036\275=<\004\275\353V\016=|cZ\275oD\222\275x\301&<\206\006~=\346\346\022\275Hq{\274\020T\243\275.\3037\275`bC\273F4f\275F\0371=\222\377\201\274\221u \275\031PU<\375\001l\275~c\326<dp\243\2754U\243=M\000$\275\217Z\262\274\325\017q\275\372\013\003\274\0218\273<$\274\007=j|n=\235\207\200\275\355h\243;&$:=.^U=8\231\032=\240b\255<a\274\220=\312J\225\275\336\310\210=\323\375\014\2753\236\245\275\000\031\235<\300ZZ\275\026]\204\275\214\3462\275\256lj\275\372^\006\274\023\t\235\275\035\267+=\262\377\313\274\273\231\023\275\326\207^\275B\322H\275Z\261L\275JH\035\275|\362^<\210h\004\275_Y\036=\227\344a\275xj\267<Peu<\336\027\235\275\234\033\275<\322\370M=\005;\212\275\350\356V\275\262\3723=v\247E=\250\033\027<\334\030\367<\000\r\237\272\200\021\276\273j\330\003=\342\317+=<G\324<xp\036<\273\020\223=`\202\355<\276\333\216\275\310[)=X\347,\274L\314Z\275\273-\222=\350\214n<PT(=\020\207A<v\0100=@\020\r=T\016#\275p9\033<\036{Q\275H.\230\274P\213\"=\234\022K\275`\335A<\253\237\235=8\364&<@\365\034\273\212\3535\275\177<\"\275x\336\004=@\016I\273\022Q\351\274\214t.=T\034\237\275DBA\275\230\230\223\275\274 \023=P2{\275x\020%\275K\230&\275\344\343\233<t\271\362<t\227\201\274\277i\210=\350@7\274\222\2156=N\216\236\275*\200x=\200\275\026;\254\020m\275\366\006u=\037J\203=00\267\274\2609!=X\256\031\274X\247\325<\300\032\374\272\216\365q=\030\207`<l\371\246<\307W+\275\250\010\332<8k\022\274\252Wa=\250 \256<\342\220o\275\274Q\212<\237\317\200=\323\334\217\275F Q=\034Q\215\275\343\255\036\275|9\340<\260\264\307\274\360\311\030\275H!4\275\270Z\023<=\220\241=.\322\232\274\254~\304<\260\323\205;\006\275\236\275\224Z\000=\233\274\242==\336\244=\374\337\375\274Zz\224\275H\3628<\002te\275@\310k\274\356\257\221\275\333\302\224\275\214V\354\274$X\325\274Tk\237\275\020\3172\274v`D=\304\245.=\370H?\274|\322\251\274\313\355v\275X\3379<\252q\030=\000\035#\274\300\251\204\274@\236\313:h\001\311<\274\234-\275n\312H=\024\n\345\274\360\373\307;\252\'\203\275\330\001z\275\374\315p\275\220z\314\273\000:S\274,H\204<h50\274E\375\001\2756SN\275\000\310\326;@\353\260\274\t\302\224\275)\367\203=\346$\210\275\000q<<\320L\n\274\000\312\344\274xk\213\274\304\367`\275\216l\024\275\212\227\017=!ZY\275\302al=\220\256G\275\216\' =p\336\331<\267\250\243=\240!\305\274\240\345\314;\220\265\247<8V^\274\0361\225\275C\024\231=\234\314\246<\251P\'\275+\010\235=4~\203<\000\027\3269\000D\2378\256\315\210\275\370\362\236<@x\317\273`\206p\2732V\240\274\027z\222=\000\020\327<6\245\226\275\201\253\000\275`\322\277\273~\374\031\2754H\377<\240\261\344<B\363\346\274\336\013B\275\noH\275\366\222\t=[\244\200=\262zo\275\362ZG=\263\245\037\275\200\356\037\274\240BG\275J\350U=\326\376i=D\275\344\274\323v\222=\200\211\204\2752\310\021=\270\024}\275\251\323\014\275\010\240A\275\310\300\235<\230\242\024\275\375Z3\275\262\262\325\274`/+<p\204?\274\351\037\203\275\360\r\224<\374\206`\275\250V\260<UV\006\275\240\200\034<\210\005c\274*[v=\220\206\370\273|\323c\275\016\024i=.\317\201\275p\273\331\274\222\361A=\030\364Q\275\366\2674=\251W\026\275\261\341\032\275\245\341Y\275?\236$\275\262)%=`\001\357\273\000}+:\321!\n\275]\0101\275\304\302\260<0G\222;\335Q3\275\000e*;\314/s\275\272|S=(\3260<6M\n\275\036lr\275`sN\275\310< <EP\201=hsD<v\227|=\310kp\274\003\016\201=\204\237\274<\032\017\000=\333\233\235=\000\226l\273@r\355:\304\354\226\274\202+\362\274P#L\274\025\354|\275(5m\274\030w\263\274\200\263\274\272\316\347c=L\260~\275\006\245\236\275\000>f:\360\177/\274\310\200\007\274:}\321\274[u?\275<[\240\275\312;}=I\367\244=\302<\222\275@O\205\274\236\236\005=\t\"\213=\260\203\016<\024\243\203\275\316Mv=\210\205c<\3627\022=\277l\200\275\344@\231<\034\301\273\274\305\213\031\275}\3707\275\306\r\032=\t\276\211=\205-d\275\324\216\370<6($=\256\'\363\274\026I\216\275\320\274\r=\005 \203=\314\232\323\274hz\r=\3142\210\275\340\367\213<&t=\275a`\235\275\330\2238\274R/\177=\206\2608=\000\252\210\2720\227\303<\256\350\n\275@UQ\273\2642\202<.e\234\275X\t0\274\025\311\033\275\000\023\3579;\217\211=\210\263f<\000\033]\273\030nn<kR\243=\230\322\024<\031H&\275\332\226M=\344\254\234\275\372d\016=\240-\001=`?\r=<vk\275z\nD=\037\213d\275_\366\031\275\200E\177\272\340\351t;.\'e=b\337_=\020\252\227\273\352iW\275\236\276<=\2721w=:1\214\275\027^w\2752\270\021\275\245m\226=\2303M\274\344\373\226\275\240\2203;J{\177=\020\031\254\274n\3341\275d\362\034\275T\301\032\275jl\201\275R\213]=\311\343\211=\"\231$=\214\3351=\365\204\240\275\215\2370\275\230\320\000=\000\247\213\272\360>\275<\203Xs\275\262\230\177\275\377\256/\275\"`o=L\223\244<\340:-=\300\302\353\272\376\314\255\274\306\2329\275\177_\t\275\177\324;\275\274s\021\2750FG<b\303\224\275\200_0<\212\371(=\200z\310\273\372q\231\275v\347C\275\274E6\275\372\270\001=\n\335&=tB\023=P\261\363\273\3666X\275\374\372[\275\322\266v=1*\227\275\360\036\227\275x\241\035=\254\313\344<\200\262\250\272\324\217\222\275\226\305W\275X\033+\274@\211\222\274\230\321\026<\300\271\324\272s\244=\275\220\014,\274W\347\210\275\n\366D=\336\353\310\274!\005\231=\240\374\256\273\302\253\264\274\267b\226=\200\233\246\274+\034\217=Li\202\274\333Q\223=\250i|\275\240\276\232<\260J\002=\t~\217= \020\267;\325l\230=X\374B\274\320\211\237;\200\201\261:i\336\210=\000\342m\274F\230\t=\312\235\215\275\244P\261<_\3217\275;\352\201=\364\207\253<\222>==\344M\236\275\376C\301\274:\324\032\275\204k\323\274\224\223\000=n\361\023=\036r\313\274\207\346\204=\027^e\275P\302\310;\014\r\021=>\027^=\272\212\024\275\220\177\361<\372\013A=\340\031\225;\030\024\032=8\240\"=h\030\006=\016\242\025=\200\"\033\272ut\243=\330\274\017\274\3551:\275\376\365\201\275\\\365\265<~,K=<w%=ze-\275\260\035O\275\340\241c\273\200Z\230:rr =\326\373t\275)\t2\275\251\220(\275wa\235=\262*&=f\312i=\331\022\237\275^\270W\275\2027p=\334\013\363<\232\216\r\275\250hG\274;t\222=\200\263#\272\022\2779\275\010\271,\274_\216\244=\035\376\237=,\244\246<\240\033W;\2448\260\274\370\320$<Tg\326<\202\255r\275\316\253f=7c\242=@\263+\273$\303\206\274 n\332<\265\023\202\275X\005\021\274|\246\230<C\343\222=\230\337\036<(\351K<\030\r\303<\223&\245=\000\221L\273\312 w\275KR\205=\246\004\027\275\000\000j\272\302\006C=\030=\266<\300\262\234\275<\210\315<\320s\020\275l,y\275H\030\023<eG\203=\275\\\200=\366\240\244\275\230\262o\274Z\367t\275\240\021\032= \201\267<\004%\227\274\364\365\232\274\310\025\213\274\373\255\222\275qfz\275\270O\370\274\210\211\r\275\000\313\251\272/\270\216=$\210\222\275\372oh=j\262\201\275\312\231\245\275\007\227\204=\322\022==E,\243=\304\367\264<0\257^<\000\244\034\274\262\270H=H\340\307<\350\213\337\274`a9<\3601\217\274n\2037=\247\315\220=v^M\275\212?I=\203\005\245=\315\'\244=&\355\245\274\034y.=\326[~=\323\234\236=!\306\236\275\210O\007\274\260h\357;03\034<\371\375\034\275\003w\215=L\325\224\275 z\304<\251\325\231\275\214R\214<\247\316\234\275~\366s=\0008%<\315W\215\275R\245\007\275\254\251\202\275~3w=\036)D=\240\222J\274\020\364\227\273\3011\223=AiN\275\375K\024\275\000\023\364;\241\3730\275\177\371\223=\352\345<=\270Z\267<\355\330}\275R\304F=\316\245\003\275\3523c=\010\314\221\274|\225\203<\002\314\366\274\n\267k= P\206<\244:\347<\000\nk\271\352\255N\275\3449\200\275\213\265\242=4J\224\275\"\213m\275&\0249=_2\243\275\366{\355\274\251\300\212=W\274\204=\203q\233=\0006\204\272\304De\275\2443\217\274\036T4\275\200\231\000;\332\230a\275\300\213\343:\224\013\250<\244L\003\275\330/\270<\2560y\275\220lq\274@G\002<\022N\223\275\250~r<\366 m=V\345o\275\2767\217\275J\261\263\274\025b6\275\252\316 =`\274.=\335\020\225\275\020\307\031=P\341\236;\\\351\027\275B\212t=x\010\016=\200\004?\274:\305i=|j\r=pX\322;W\231Z\275\331\302(\275\000=\267\271\311\335\233=\tA\223=fOt=\304\342(\275\031\220\211=\262G2=\236\275\001=\240=\275;?F\236\275\274x\200\274\366\261\227\275\030\347u\275\222`\333\274\300zm\273\022\227?=\326\361\033=\224k\263<\000dq\275v\\4=\0142\323\274\340N\016\274\023\367*\275<=\034=N&/\275(\254\022=\030>\367\274r\361\013\275\350\267\010\274\200S\203\274\3461Q=\010\327N<\230D_\274`\003#\274^b\232\274D\2763=\226>?=\206\037Y=\346\304~=5\223\202=\231^\214\275\250\205\231\275\354\323\242<`M\365<\317\202\207=\200\032?<zb4\275 N\241;(,\200<04\375\274Z\351}\275N\220|\275h\261\244\275\220\263\206;\357n\207=\277X\237\275^Eg=\312-\010=\033\203\235\275~\203g\275\346}\236\275\276uJ=\"\270N=\034\244\201\275\300\260\275\272Tz\006=\344\214\326\274Rq\217\275\242\027\202\275\356\221\237\275va[\275\333\363\240=n\004\t=p\361\212<\300\362`\274\3461g\275\360i\202\275\3205\036<xi\217\274\220\341\333\273\313Mx\275X\177B\274G\304\241=\002\234C=\0200\035<\000\327[:\274\036u\275\220\372\261<\276\005>\275\023m,\275x\307R\274K\236\232=B\330Y=\254F\204\274\250\347\032=\240o\200\275\002\374\207\275k%\211\275\200n:;\324_\367<T\314\264\274p\253\325\274\371\335\217=@W\224;0\275+\275\270\306-<\350\324\227<\350\221\244\275Ze]=\'j\022\275@\"\337<\243J\000\275\002\270j\2755\023\036\275\246\027\"=\346\205J==\3521\275\2163\343\274`\225U\274\242\306C=\t\216\217\275\207v\234\275@\344\251\274\334z\335<H\247E\274BC\271\274\251u\240=\372\317X\275\200\350\215\272\211m\216=\360\312\377\273\350\202O\274\354}\004\275\000A\214\274x\326;\274\327\210\177\275x\324\221\275L\"\r\275\270\342\330<\010Y\027<\320\006\222;pG\315\273\200k|\275\362\236x\275\306\033\210\275V\022s=\177k,\275\301\035F\275>\362\032=\341\035\217\275R\257\341\274\270$\240<^\335/=\327\027\206=`\004l\273\021\234\030\275&\310e=\250}\304<\320Lj\274\312\3367=\200\351\373;\223\306\227\275\366\240h=\260\006\334\273\007h\023\275\340d\236\273\2402_\273\022\204\223\275\350\206;<:\372]=\200\322R\274\002XE\275\205\377\221\275`3\\<\"-\240\275\245z)\275\241\240\243=\"\027+=!\201\243\275Zm}\275\344}\020\275H\325\313<?\232\236=\217l\203=\026\347P\275jRx\275\304\211\032=\270\314M<w\357\214=$\264 \2756\364?=\237\014\230=\234\023Z\275\000\2627\273h\256\260<P*\324\273\234\322\367\274\347%I\275\314v\304<\321\030\224\275\273\316\200=\260\3427\275^y\373\274r\"5\275FAv=\027m}\2754\204\352\274[\225\217\275\255\266\210=\0241q\275\320s\311\274ds\201\275\356!\\=F\037W=\366\242`=\3009\030;j-\232\275\0202<<`2\354<\322>H\275\272Lk=S>|\275\016|D=\201\253\212= *\303\274h\235\346\274,=\225\274\364\'\210<\376-p=\200\311\321\273\272(\346\274@\333\245\272\372\255$=29\214\275\216\362R=!\032\202=\222e~=\206\006G=\035\234\204=\006D\003=\363>\002\275\350E\002=&\207h=\300\375\200\275\300\360\223\275`Q\273<\240\277\017=Vj{=\013\352z\275\326\323\034=0\3644<\360\226\253;\237\372\213=\264Mz\275\200\304\233\272\006\326]=\261\035\"\275Ga\211\275\220\235}<*\203\206\2758F2\275\371\217\217\275\276\314\204\275\256\316\213\275\010H\305<\242\325\355\274XK\033\274\252Nn=N$\267\274\350\202{<\300\326H;\315\207\234=\361P\034\275BK\324\274JM\247\274\333( \275\301-\220\275|\353\355<\367\367\006\275v\221e=\370KV\274x\3112<\010\347Q\275xY\351\274\264V\247\274;W\212={4\230=\372\334\n=\26693\2758\227\206\274\375\357\010\275<zE\275\321\376M\2754,D\275\272z\264\274\000\016X\275\252\272\224\275p\322\221<\254\277j\275w.1\275\000N\222<V\204\027\275\276\360\377\274\026\316M=c\303\212=\254\032\213\275\010\037?\274\"]\013\275n\355\026\275-\217 \275\354%\200<\032X\366\274YK\243=\2547-=\034n\275<\236\356t=\316`O\275\334\264\224\274ev\205\275\261\217\027\275\263\377\210=l\365\017=X)N\274\277\340\242=<l\244<@\300;<?\270\205=4\245\376\274\332\265t=D^\253\274\325\010\223=\000 ?<YZ\224=\\\375\232\275\020N\226\2748\354a\274^1\024=Aq>\275Z\002\031=\200g\246\273@$\265\274\010-\225\275\000\004\202\275l\375\230\275\300I\026=\351`\217=\270\200c<\024c\361<\271\225y\275/[\216=\307\266\221=X\177c<(\217\177\274\352\215u=\300\305\205\273\031m\230=W\356\204=\360sQ\275 \004\374\273\351\010X\275\200\346\263\273\'\336Q\275<\376\237\274\321\334\201=\014s#=Z\031M=~\360p=Xf\276<\330\'\035=\270\240\222\2756\254\210\275\000\000<\266c\263\210\275\255L\216\275\260\271\213\273\010\031\256<}:?\2756\221\032=J\030\022\275\256W$\275\332\253\235\275\027\026f\275\340Lu<\030\020\245\275Kj\213=w\000\211=$\010\303<X\344\371<)\"\214=N\255\340\274\270\n\371<\0317\227\275\220\314\344</^\210=\360\330\027=O;\211\275:\231\235\275\324rY\275r\376@=\004 \026=\260:\372<\314\217\373\274\177u\227=\250\307\241<\227\370B\275\010\2048<\364\327\004=\213\272X\275X\276I<B\257r=\340\351\016=\022v2=8\326&\274\014.\360<\234\025\234\275[\341\237\275\363\036\244=%^\025\275\t\032D\275\300\305\000<\372\234\273\274\255n\001\275B\276\225\275\356\224k=\246-d=\345\347\233= \221k;\310!\231\274\264\326e\275\2108\213\274\326DS=\315\213-\275\030\217\361<\037\223\245=\220\350d\275\277Q\211\275\033\'\217\275\210,\244\274rI!=2\220I=\364\332+=\226HH=\360\354\026<tm\203\274\200m%= \331\202\273\020\351g\275\263V\021\275\222^\200\275\370D7\275\300y\001\273Z\0274=\376_\331\274H=\216<ph\261<\004\r\234<\350\021\034<f\250*\2750\314\347<\311\315\231\275(fs\275oK\237\275X\223\341<\334\211\325<\200\203\302\273\320\276e\275)\3219\275x\031\217\275\310K\205\275\354[)=\267\361\235=\335\376\232\275\004<2=\002\261b=\374:\240\275\366\306 \275\361\377\244=\320\2111\274\340\226\343<\310\021\374<\000z\334;\311\005\231\275\365\017\230=\316\300\267\274\031\246I\275\224c\350<\252\274\221\275\265\202\211\275\300\247s\273\333t\240=\016K4\275\220\006\303;\372\035:=\214\340\316<\304d\360\274\254\225\201\274j[\001\275\200\2164\272\010\375\240\275\331-\206=\017\234E\275\332\026\211\275\330L =\360\300]\275.\352\201\275\312\333\230\275b\371-\275f\235\227\275\350}\035=\367\304\220=\260\351f\275\200\247\241\273\300.\367\272\026\177x\275\330\200P\274\205\260\234=\200\247F\273\360\026>\274\263\275\212=|\016\006=\226\023R\275R\017b=\022\257\037=&\234.=(\201\200\275\272\270l=M0\237\2754J\334<\314a\356<r\005d=\350x>\274`\256\335\273--\236=&QK=\270\340/=\232\320\177\275\031\272\212=\234+\202<\342\343!=D\211\342<\303 \226=gl\221=\000yp<F\200\000=\340\276(\275\020\273:\275\330N\033<vbn\275\002\360\206\275(\326\032\275`\350\004;\230J\204<\364\335\022=Zn\336\274\272T\333\274\202\242{=\327\270\033\275\22048\274`k\035\273:\246W=*\273,\275\350&\271\274\341\340\222=\354)\247<\254q\214\275z\344x=\360\275#<\220nX<\353\207\235=\252\243\260\274Gg^\275\250\272\350\274\3409\223<p\337J\274|\"\212\275\nqY=\326\302F=\350\316\306<|M\263<Q\352_\275X\300+\274V\262\025=\343\024\214=\251i\234\275\260\356N\274i-\224==\231\230\275\210\254\r=\326\222f=\212\372u=\3203^\275\316\304\355\274~\276\212\275\004\205y\275c\276\234=TD@\275\2557\205=\022M.\275;\025\246=\007\227\226=m_/\275@\233\305:<|\340<<l\241\275L\027l\275\006\255\025\275\306\3318\275B[d=oh%\275Q\316\206\275`rs<\330\031}<\016\345s=\225\004\237=pTn<\256\341E=t\214\307\274\346\3462=v\240s=\231\332\207=\350\265\207<pm\003\274\007\360\206\275\363\330a\275O\323R\275\215R\221\2757\316\232\275\200(\312\273\373\242\211=\225\243%\275Bsf=\236AA\275\034\253\036=\3607\337;\312zm\275\226Gp=&o\352\274\302\261u=\340\017\271<`\220\352;\340\372\371\273\210xd<9t\234\275\214\324\336<\254\305_\275\360l\354<x|)<s+\211= \355\002<G\017\224=\306\215\352\2742\340B\275\330j\025<\254\367\023=Z\3443=\000\317\036\275>rR\275\026\361\036=0\010\013\274nH]=\350M\001=8~\236<\357\333>\275\020\\\357;\354m\376<\222OS\275\0020\021\275\214\205\026\275\220SB<V}e=\265I\226\275\032\245\203\275\330\276\r\275\374L\223<\0369v=\240\242\025\273\264\r\007=\'kb\275\2361\031\275\352\351\215\275Z\\\202\275\355\313\203=\225\264\224=\366S\277\274\0200U\274i5\237\275\202\316{=\007\026\202=vwF=\236\016g=z\016\022\275\020\220\254<\256\334H=xE\221\274P\373\313<\032Cl\275\334\322\030\275@j\214:x.\326<\2769\245\275.\244\003=\006\342R=D\302B\275`B\021;5\201\204=\250z\235\275\354\324\024=\276\\B=\354C\216<p\320|\2744\262\323<m\365\214=\374B\342<o\273\237=`8=<\004\367\244<,\310\003=`\243\204\274\272E|=\010Wj\274\230\247\177< dM\273B\252\020=0\330\313;\022\215\004=#\344\227= *\017\274\206\014R=\230eD\274G\253\210\275\020J\246<>(R=\035-\236\275\010\006w<\267\035\221=&\005$=Hz\003<|\241}\275p\037x\275.\305G=\216%\004\275\230%.\274\366\010S=U\257\037\275\307G\201=\360\242\271\273\370^\327<A\\*\275\235\275\242=pe\220<\354\362\270<\024\242\350<@PA;HI\215\275\324g\024\275HkZ\274#$(\275\033\330)\275\200\375#=`\232{\273\3409\023= \t\244;\307B\230=\371\356\035\2759h\007\275\327\006I\275\362\344N\275\240\334w\273CP\201\275Q\036\210=v%u=\014\352,\275>!\213\275\220\332\r\274a\323\214=\201}\201=\3406*\274O\230\210=X\204\266<\010\317\213\275\207!?\275PT\210<\337\324=\275:\255\274\2749]\242=\366\310K=\302\307\004=\227\036\234=P\302(\274\326\253{\275\\\302\035=pz\216<eR\203=^b!\275\326\357X=\3541\000=\010\305\343<\2652`\275\252\232S=\340\2740=P\316\336<pJZ\274\300}\241\272p0^<\266\204\220\275\250\017\320\274\242C~=\333\005\'\2750\0367\274\032(\\\275Xn@<p)!<\033\010\202=\332l\203\275J\032X=vr\003=\360nV\275\322\2167\275\220\303d<\317\306\033\275\357\277\214=n|F=\347\204\225=:2H\275\300\315.\273\000\303\302<\306Z[=\333x\230=\t@\216=\230\313i\275 \214\241<*\036R=\322\345\227\275\020\231\327;\264\014\312<\342hj\275\204Q:\275\020)\235\274\347\350\003\275t\203\356\274\\\340\367<:\264\206\275\220-\205\273X\302X<\242{\245\274\360J\340;*\250l=n(Q=\300\272\351;\014R!=\265\326;\275\350:\225<k\344\206\275N\312Z=T\351\251<\301\035\245=>h\007=Z\237-\275\370\001%\274\000\n%\272\267H\226=\270\024W\274\3166s=@\020W<\365Y\242=\037\345\241=\224\304\200\275\3405\t<\0270U\275^\246&\275D\371\230\275\240\314\221\275^\215&=\264\242Y\275P\033\256\273\210\211P\274\346y\006\275j\302o=\"\313K=0\207\243<0\366K\275@\023\033\275:j\025=\363\037<\275\210\247\023\274 u\000<\236]5=0T\326\274\362\036Y=yl\233\275\000\236\177\274y\264\241=<\354\210\275j_\177=Hy@\274\345q\236=\200rF\273lI\213\275e\277\003\275\200\341\263:\031>\216=\351\340\\\275\000!|;\305\300\221=8\304Q\275\262\321m\275\200\324\001<\014\355\323< \304\021;\332\356}=m|\215=\304/\321<q\244\037\275\330j\\\274\035T\210=\270\2501=w\232\226=\0354\242=\374\213\036=qk\222=0\355\340<\212\300D=0M\337;2%0=l\265\301\274\006c\237\274l\314\214\274\200\3315\272J\232}\275z\261\204\275S\020\214=H\265\000\274\222\265B\275\330\350.<-\327\201=N\375\202\275\317\035\237\275\363fA\275\007`\227=\000=\034;\305\2060\275R\206\323\274p\237\021=\030\264\311\274>\361\266\274\032\274\231\275 \2427\273\206]{=\177u\202\275`\226(;>\203q=;\346\215\275\230\224\272<\247\3152\2750\215\254\273\006@Q=\360\221\355;\330x\033=\000[\025;\0334\241\275\266Wn\275^[+=e,M\275\033y\215=H\321\235<\340\3134<\006\251\037\275X\016\001\274\254\022\214\274\034\313\202<0\251\334\274\375\030T\275\360X\016\274\200\350\226<E\270\244=\310`\214<Z\376n=6\213a=\335\000\223=\335\313\223\275\350\357\r<\314\310\005=N\314q\275\367\037\224=\220Ss<\363\036\211=\202\252\016=/\314\225=\310\230k<%.\236=\014\215\221<\021\205\220\275\210v\"\2752F\375\274\360N\025=M\337\243\275\200t\311<\216\240\265\274ta\334<\177]\243=T\213\035\2752\257\313\274\254\t\026=\325:\233=\360\231\337\274\211g\204\275\230&-\274x8h<\330ng\274\310\005\266<0\356\203;\034C\214\274FP\261\274\227`\205=\200<\264;\371\2245\275\000\020\367\271\220\\\371;\034\020\371<\204\230\224<\315:\202=\350V\341<\"N\010=\200\356:<v\340\220\275\216\th=(\0261=\334c\274<\340\226\244\275)\016\240=N\361O\275\346\306o\275\000\256r\271~\302w=\274\'_\275 \027\214\273\247\013\003\275\272)$=\206v==W\027\221=B\307\202\275\214-,=z\246\313\274td\203\274\342\302 =\276\354\263\274\016\334E\275\340\323\310;\211\241\223\275b\007\026=\370l9\275\220\243E\274<D\227<W-/\275\206,\331\274\240b\034\274\024\221\021=\350AL\275\335\261q\275\236J]=\372Lj=\230\000*<*t\025= .\231;4 \230\275\230\370\007<\271#\245\275\020\014\227\273\227\"\200\275^0T\275\246\225\235\275\020\036\240<i\317\202=\200X\320:\000\202\2029\303\203\236=c\037\211\275\330\036\225<\340\257 <dz]\275)e\244=x\363\006<\340\023\245\275\000J\0279\375\347\003\275\225\034\212=BAT=]\351\206=\214\224\216\274\315B0\275\336\033O=g\t\212\275VS\227\275\264\014\215\275F\245&=\000lc;$\355U\275\340Q\262\2740\335{\274\233M\036\275\307\256\223\275T\245\260<p\216!\274\262M\006=\200\300A\274I\032\212=P\344\226\273\253\307\243\275\310\370\220\275,\237\362<\004\333\261<\256SJ=\226\243,=\370A\222\275\270R\342<\316\373h=\324\310\210\274\366\276\216\275\024?\315<P|\215<d\320\022\275\345(9\275\246\352\300\274N\326{=FY\315\274zlR=`\220\234<{e\230\275\246p\327\274\205\355\244\275\270\310x\275\000\210\242\275Zuf\275\000\321\355:\307QK\275\225S\204\275\026\002\035=\320$\337;l\001\346<J\200#=\242\221\004\275u\305\237=:\033c=\000D\t\272\352w\247\274\010c\034=\360\027\330;\275\016\231\275P\355\r<\020\t\014\274\352\221`\275\340\241F;=nq\275\212\356j=K\224\014\275\300\335A;TD\331<u\3172\275\366\002s=\370|\343<\261\371G\275x\3235\275\235\200\021\275LZ\014=.\236\000=\354\226\000\275t\t\220<\240r\236\273\236\032\214\275\\\"\220<sc?\275\214<\226\274\245Q\217=\300\306\215:\230\001\246<\270\277\271<\370\262U\274\322\341;=\274\016\210\275,T\353<\367&\216=\026\355]\275\370\333\236<8\251\017\275v~Q=\013\245\203\275D/a\275\260o\254\273\203\2046\275\221\311\227\275\323J\224\275\256Y\003=g\261\003\275\302|\330\274\236\230b=\256Sd\275\220\302Z<\n\032\014\275\234\313Z\275`\230\367<\030-d<\376\237{=Et\235=\3649\235\275AO\211=\322\376\371\274\360ft<\255\001\225\275\352\016_\275\204\r\r=\355\t\030\275@\211\220;\023\025\t\275\357U \275r\331_=&\013]\275\350\334\016\274\220l\252<\032d@=\214\370w\275r\311M=\270g\032=x\262\032\274\370\024|\274\260K\253<\220\357\203\275\260@}<\224\330\274\274>\\6= \345\203\274@\210\201\274\260\352\\\275\253u\200=\033\323\234\275\311\035\220=b\251\032\275\253\361\017\275\360\206\230\274C\262\241\275\365n\236=Ky\203=\270\332g<\216\rk=&\3356=\273M\227\275\266}q=A\227\214\275T;K\275vLA=\316\205\340\274\270\306\244\275\224\032]\275\'\010\225=~o~=\250\025_\274\315\263\241=\356\034d\275\026\330\177\275\200\335\005=\225\204\235=\2334>\275?\312\202\275\240\256\020<P\264\223\275\300/\211\275l\016\276\274 \340\t\273G\323\245=\372\317#=pd\227\274&\023\246\274g\375\217=:\247h=8zW\275\000\264\3618Z\373\024=}R\220=\276we=\351\321R\275\030d\231<\304\222\244\274#c\226=\333\025\240=\276<x=\026\322t=e\035N\275\243\357\243=\312\335\'=:\017\240\274\240\323\224;\360{\346<\357\t\204\275 \272k\274\032\204C\275\250Y\206\274\301X\227=\"\230E=o\005\221=\200*\345\272\220\340\347\2733_9\275y\352\001\275`\220\216\274f\033c=\232\207\255\274\036\305\222\275\035B\033\275\336*\026=@\030\271;\032/K=\352\246?\275PG\376<F\006\207\275\220#\316<>zF=P j\275\340=~;\223\344\230=Z\304\t=\260K\372\273\245\305\201=f\333\244\274p\213\037=e\350\205=\233u\242=\000T\276\270\361\276\242\275\313\210\017\275\250\006\014\275 \227\007;\240\310n\273\250{\354\274\244J\032=\240Q\322;6\303S=*xw=@\311\';{\331\221=\310\214a<ZE\302\274\270,\020=X\204e\274\234\004\321\274{\364\236=\262SR=\306\240Y\275\370\345\013\275\312V\017=\300\273\215\272\340\323\274\274X\2644<_\3032\275\224w\317\274\256\303\310\274&\'\322\274\300\203\313\272a{\211=\355\021:\275\264\363\341<6\237q\275\000Je\272\314\037\216\274\222\212\025=b`\010=\212%6=\256\t[=&o\222\275\300\271\206;\202\370w\275\302Y\325\274\300\333r\274h\375\225<\342\223H=\032#o=\247\337\206\275\360\251\332;[\232\212=\352Y\251\274@/e;d\000\027=\260\033&=+\372\234\275\300\314\244\275\312\364v\275\214\307\021=\241\037\'\275\262i0=\330\244\321<\370Ha\274\220\036m\275n\343L=\034u\005=bN\r=\343x\223=@\3101;\247\203\243=\016\236\221\275X\334J\274\177\275\221=\347\0231\275[\212\235=\254\303\303\274\031\206\206\275\210\240\374<%@\235=<n\254<x\030\233<\177\"\005\275\310\226\265\274\344\270\336\274\316\217N\275\337\301\235=oj\022\275\205\250\221=\374 \204<Z\315I=\335\350\216\2758R)\274T\004j\275R\346\002=r\367>=\000\301\364:\002\270i=[-\220=<\345\274\274\021\363\242=\337sp\274\344m\217\274c\245^=\236~\352<\321\274$\275\302O\260\274c\t$\275\032\203*=\t\025s\274\340\221\027\275\273\365\226\274\276\316c\275\356\203I\275\000\371O:\002\021G=\310%\222<\003U\307<$\202\303\273\276\007\313\274\226^\347<\006j\\=`\315\276\273\256\204X=\374&\243\275\376J\365\274\033\251\221=\014{\231<&\266k=\2101\301<\274\2250\275Y\214x=\013\214\242=\262Jz=\236i\216=\032\002c=9\356[=\330:\222=\344\256\207<yc\223=x\017\224\275tD=\275\3235J\275)\2576\275\326\254\241\275w\352\355;\245\200\177\275\220\027\257;\220+\244\275\240jT=\017\305\215=\257\321:=^>\347\274\336RC\275\242|I\275e\243\211\275\271qo<\206\246L=\373\017\206=\374\277<<\036\005^=7\210\265\271\370f\200\274\021\004N=;q\373<\020\370\356<!6u:\302\307F=\261\315\251=\332\237W\275\335\213\327=O\025\201\275\232ws=\034\023p\275%\024i\275|6\253<\226\243\243\274K\300\270<X\363<<,\375f\275\256\261N=\020Z\216;pb\007<8\3118\274\240\246S;\022r\260\274\002\367p\275\301\252\002:*\027\177=!\r\231=\030A\200<y\345\017\275\027\030\005=\354\037z=\222g\016=)\004\245=;+\275=\310\301|\275\203*C\275>\343\177=\024E\223\275\220\003U\275Qs\215\274\005\224-\275\373:\203=\340j\035<\r\241\227=TrZ\275\221\332\304;J\247\337\274\206\350v=\252_\003\275\034d\274<\336\363-<\000\230\201\271\242\345\251\274Z\201\217\275\240\236\223\275\014<\227\275\211:=\275h\235|<\267\266\215=\230\344L<\266j\206\275\023e\224=\312\245*=\237F\245\275)\177\237=\267q\216\275\320\362\320\275N\007\032=<\333\323<\240F\302\274\337\260[=\314E\307\275a\372\223\272L\000#\275H\263\302<D\247\304=h\362\343<Z}\201\274@m\214\275\230=`=^\352R\274\357\343\275=\334+W\275|\272h\274\202\216\004=\352_\234\275\332\2064=4!\034\274\202i\203\275\nA\251<\036\232\221\275\320X\034\275\357\017\231=\216\021\r;\242$M\275KcK=\316\315f=T\322\267<\n\026\207\275\013\275k=\370\036C<[@\213=\264JI;\240\006+=\025#\232=H\263\376<\020A\306\273\275\252\032=&\360\267=\322|Q=\3564\307=\245\025\017<\206W==\355.\222=\332\230\270=\325\342v<\224\356\232\274\235\377\207=F\241b=\232\327L=\325)\316\274F\215T=\342\2229=`\226\030=a\344\370\274d\207\021=\303\032B<j\226\206=\241q\030=4\022S\275Q\260=\275s\260\320\274 \336\217\273O\351\n>\0225\355\274\226-\035=\347\315\347\2749g\201=\302\273\206\275c\034\213<y!\241=\306\225\216=\206O\001\275,\210\365\274^\275A=WN\223\274\326\325x=G\246\226=\373\276\217\275\224\254\211\275@Re=\221\027\207\275H\221\007=\311\312X\2754\244r\275\266\322\001=a>\346\274C\240\035=\221K\t=\337\276\200\275\taB;\344\332\272=O\304\217\275\302l&=\007M\254\275\000y)=\270\203C<\225T\315<\310IY=^\3654\275\315\250\207=d\360\222\274\010\2406\274d\'w=\274\231\312=yI\217=\014\240R\275\227\230\243=\177.\004\274\302\\P=\221p\225=\007\361\222\275PE\014\275P\262\\<2\357\363=\301!\267\2757\232\214\274T<\366<1\277N\275N\323\312\274\310\307\017\275\250V\227<.p\033=m\237\363\275\210\306\247\2750M\033\276W\217\005\276n5O\275\365;\t\274(%S\276\002\ng\273vq =X\373:\276|\367\377=\0301\306\275\224f\225\275\330\3766\275<[\266\275\004%\317\274L\001C>\002\320\344<U<\300=\264\307\371<\223\222\005\276\320\306\240;\317\236\201\275\377\273\356\275>*\032\275\035\240\242\275\241\213q\274\3101\211<\002\014>\274\273\363\253;\376\037G\276\200z\262=\005\031\235=\307\300D\275\362\361D>V\261\020\275u\353\200>\367\210\n\273\232\nR=@\205\240:.\r\323\274@Qt\275i\276\035=\216\332\026>\203\357\217\275r\211\021>\3034\230=C\231\363\274\002\316\321\274\303\312\300<\317\220!>\'GR;\220\017\364\273\224\216\355\274\354\232~\275 p;\275!\205\032>\2558\372=XQK=\325\375\303=\320\371\243\274\r\315{>\364\266a>\355^\335=\272\222\031<\241\320\272\275\016\350\242\275gN\232=\330\273$>\210eN\275CX\n>\252\211$=\004\274\367<\360x\332;nE\017=\2057\216\275\243\026\003=)J?\275\314\215 =^\276\001=X.Q\275b\n\223\275\256\232\003\275\3341\031\276\360\211\204;(2J>\275\335=<`\263,>\253_\237=l\226\336\275\030 \366<\027\253G\275EV0\276\306Q\313=`\315\343<\300\222\344\275\350\030l=\212\300\263\274\344!q\275h\014l\275\356-\035=1x\025\274\314\374\205\275q\360\263<%\263u\275\310\236Z<\302\177Y=S[h>\037\367\314=\364\222\031>a\325\233\274o\321B\275\364(\321<\240\'\262=Z\230\306\274\364\177h\274U\273c\275\006\240Y\275\347\276\227=\201\223\025>\333q\010\276\212BZ=`\350\007\276bJi=<\373\255\274\000]\207\271\345`\244=\351\036<=U\310A\275\305\014\205\275\325\025x\275g\223\033\275\242\207\307\273LT:\271\2507\202\275\362 \317<\t\250\030\274\244Z \276\356\025\323=\024\230\374\275\326\204\234=\261T\222\275#\227\336\275\0100h\275\365\222\207=\002\335\351=M\260\232=\275\004\234\275\342TJ\276\214r8\275\321w\255<\240\255\351\275\032{\354;\327\303\200\274\326\261\016\275\310|\303\274\334\307\035=\215~a\2749\375\360\275\217t\325=O\302\213=1\013\224\275\363J\031>\024\177c=\010C\237>\246\t\270\275\204s\375<\266\014o\275.\366\247\275\204\344\030\276\016\r\t><G\244=&\353U\275\366\235\315=\214\217i\274P\363\017\273\302\2500=o\014\303=C\2121=^\327\273\274\236=\231\275\346\357d=K\257O;!?r<\360\221?>\027Ue<<\017D>\237q\322\274\002F\333;H\350\022>Y\261#>\376\257v=\264\231t<\035\240\236\274\007\322\030\274X\001\r=,PA>\321\310s\273\334i\202>\205p\251=X\334\315=\363\370%=\002\241\241\275e_*\275\311\032\023:\305\352X\274\326\365c\275\320\306\311\275XUl\275\305\333\261<\232gh=\250qY\276\030k\352\274v\373\310=\022\363\236\274\330\322U>\224%\211<=e\331\275f\214W=\3322\250\275\007\235@\276:\014\201=,y\234<\202\300N\275\216.\216=!\375\215={\021m;\223\313\360\275[\'\214=i\034\'\275VW\313<(X:\273H#p<d\317d\275\025\227#\275-\276\366=?Z\032>4a\'>=\230\272=f\273\245=Z\2009=\030\305l>\347\217\232=)s\245\275G\323\276\274uw\313\274\204\252\356=jT\030>\216\366\372\275a\023\214=\007K:\2769\342\245=J~\223\271Q\3753\274\242q\312;f\003\265\274Y\2023\2764\306\033\276\352K\236\275UF\017\276^\265\350\275\177\220}\275\224\324\224\275>\315V\275\204\023\337=l\356\262\275\242\300,>\263\306\016<\356L\352=\214\n\024\275r\232\374\275x\343\233<M\0331>\000\367\037>\212\362\004>$G\246\274\263\263\252\275\377\307\200<w\204\201\275|!\235\275\243I\010>\037\006\006>iL\374\2752e\343\274\277\323x<iO\255\275\263#f\276\200RU>\317\031G\275q\361\327\2757i\222=\222\242\315\273:\260\003>d\234\335\274\201u.=\240\272\210\275\0347\032=B\337\366;\t\177\363=1J\007>\243\331\257\273t\314\324=-\336\354<\003s\021\275`\307Y<\331P\365=\216\255\020<:\023\256<H\350\254\275]\273\215\275\350\032\242\275\237g\323\275>\303\'>VWH\275\342ho>\3218\203=\'%\342\275\275e,>\275\237]>Y{\037>\356\252\307<\362Q\266:\352\206m=\273\010=<\2774\352=\271\313#\275\357\2569>r?e=\311\365L\274\235\241\207<\313\317\346\273\0331\371\275\241\020k\275\003{\215\275\262\330F\275\344*\331\274\343\231H\275Fe\227\274\3075/=\211J\303\275\010\202\256<>Z\n>\263\027\004\276\005\343\032>f\022%=\347\322%\275\372\316r\275:\335\304\275C\005P\276G\007\274=\027\334\251\275\035\267\213\275=\255\033=\026U\217\275\020\252\311<\2527\003\276\355\236\215=\006\303>\275\030n\311\274\277q\035>B\261\006=\245C\320\274\340\rY<\345gU>\026GG>\253\356\202=\"\'\245\274qM\317\274\332\234|=|\324\r>u\276\327\274\302\252\235\275\216t\201=rO\231=\0267\246<?\277 >\303R\023\276\230\230C=\332\320]\275\250\261T\275o\221\034=\216Y\225<\224\304\324\275\024\214\270\275\310\223\014\2767\354\360\275\3240\334\275\324B\035\276\330\236j\275\036@\272<\311!\240\275\005\257f<\315\273\\\275r\234)\276\250z\245<7\215a=\247\010\022=\001e\231\275\260\206\003\272_\021\373\275\033\320\346<\225\242\202=\010l\022>\233!\227\275R\227\307\2750\347\006=\370\000w\275\246W\000\276cF\023>\352\343\353\274*\032\013\276]\372\231\2757\351\242=\001\032\007\276vop\276\252e\342=\275\017\237=7-\366\274\257#\301=\035\330\200\2759.\'>\"|\202=Ef5\275D\232\227\275\242#\203<r\374\001\275K\377\327=\343\244\017>\246\241\t\276\305\300\332=\332\212\246;\227\376\305;\210%\374\274)\356\266=\222\357<\275\303\320\317\274\033_\205\275vF\216=\000\205\326;U\021\325\275\244B\232<B \274=\250\020\204>W\346/=\236%\205\275lC\014>v7\353=\266j\001>\032\274\223<\320\221\201\275\311`\375\274\354\330q\275\022$\363<\205^\276;\'s\247=\312q\017<\035\024\013>\021\323A\274\253\345Z<?9\267\275_.\351=\273\274\212=\222W\005\275\246\232/\275\235\336\210\274\203\226\001\275\231P\205=\274\"\365\275n\371\014=\3023\221=\317\234\301\275\271\236P>\205\014q=U.a=\013\321\375\273\357\220\273<\267S\017\276\216H\216=\250B\234\275\025\271d\272\014\223\301<n\036r=\317\342L=\206\244>=\322\034\014=x\017\n\275\362k\306<&)\207=h\022\217<\351\001\372;\037\356\254\275\261>/>\313\2176>w\250\373=e\231a\275\360\304\202\275\340\304\207<.\207\212=\334\356\210\273%\350\237\275Lt\037\274#\004K=P\016\021=\305\305\024>\001U\303\275\307\001\243\273\236\203\367\275\026\036}\275\265\352\315\275%\246\276\2757\226\244=~\035\245\275\365\304#\276i\330\200\275\234o7\276\237b\335\275\221Fj\276\201)\016>\3425\242\2768\034\242\275\302\320\204=\013\322I\276r\300t>\326Mq=o\311\372<Q\346\010\276[\203\337\275\362\016\006\276}J\033>\252\340]>\310\007\227> \323\034=\304\016\264\275\245\301\003\275\030\')\275\317\355\307\275vS\376=\004\351%\2755\020\304\275\260(\007\274,Z\031>\001<n\275\300]x\276\361\030]>\355\316\277\273\004\032K\273\014yM>\2557A=^\240a>\344\023\311=/\234\314\275\276\256j\275*\311\257=:\256\245\275\265\022s=\022I\003>\274\302.\2741\232F>\357S\317=Th\316\275\207\241?\274@F\237=\313\3744=\277&\347<\\\366\266;ZPe\275\204\344\342\274\362\271K\275w\000n=ev\004>\r\0326>{6U<\267\022\207\275\323\215\237=\366\2058=\232\252W>\345S\032\276\345\211\004=\376^p=\013\365\214\275E\345&>\253\240\014\272\370@4>\321~\302\273a\326==\202\025\003\275g$A\2756\241\277\275J\023(>Y\210P9\270-\335<zG\245\275Vp\335<\360\016\252=:\241Q=\205b\221\275]\034\217<\003S0>)|\026\276D\"\221>\365\241\326\274 \010\t>\325\364\357;2\210\007\276\n\346\350\275\370wH>p\013\211\275>ty\275\004\216u>.\034f=\325cl\275\313a\224\275\320.d<\211\310\023\275\312\253\330=\"\327y=X\016\314\275\201\010\215\275\t\344\227\275:\372\330=\316\305\025>\317\260\025>~*\251<D\200\006\276K\\\237\275\355?\372=\351\343\006\275\350\251\014\275\303G\376\274+\'\216\275\315\240\276<2\275\257>\363\001U\275\274r\341=j\223\035\276rj\255\274.\303\246\275\253:\026;L\224\014>\014[\034\275|\024A\276\002t\270<\370\005\274<\211\000\234\275O\017\305\274\277I\356\274H\242T\276\0212\240\275\326u#=\202\336\261\274x\306S>\265q\340<]Q-=\302\357G\275R<&=\266\024\215\275\224\243\\>\003\234P>\314\251\226>\342u\200\275/V\272;1\351&=\027y\'\276\361\254*\276TDM>W\351\317<\367\036B=\220$\321<\005zo=\207\274]\275\373D\216\276\001/\367=V\006V\275\031\243\313\273\344>t>\354\r\300<\266\034\355=\342\265\3578\032\234o\275\317\030\217=P\245\251<K%\276\275$\254\227=\010lM>P\265\033<!\370#\274\366F\365<\247\022\245\275\335\330\222=\200\020\177>\322\245\342\274\n\313\251=\312\267B\274\256\262\005\275 c\337;\035\340\323;\330\244\302=]\024f\274\364\343\234=\016\241M>\031\2343\275\225s\323\274>\226\242<\306\211\n>\343\231\275\275H\1772<\200\313\203=A\\\035\273\374=n>K\263\020\2758\343E>\306\374\010>\216n\257\275\255T\266=\363K\275=\374\266\276\274\005\2557=\362\177S>\265\362t=5\331P<\026\364\340=\224h\333\274\254M\307<w8n\276?T\252\274\374(\001>\321X\354\275\377D\001?\006\2023=\351~\231=\343v\244=#/\340\275\n\231\036\276B\330$>\322\234R=\017\'\036\275p\262R>\013\332\214=\2615(\273\303\022\014\276\006\371\227\275A\336\206;P`}\275Td\216=\200\226\014\276I\272\263\275v\034\215\275 \257\350=\346\261\320=\301\332\230=\230\341\001\274\002\370\245=\361\005\321<\322\007l=\027\302\340<\237S\n\276\316\272\006\275\323\342W<\232\213\325=\223\"\201>\364\350\250\275^P0>#\245]\276\360\241\036\274<.!\276\237\262\220\275a&\261<\367\201:\275\221I\345\275\030-N\275\347\\\235<A\303\241\275\367d(=\360\221\307=\207\336\321\275\371T\323\275c\344\232=\32352\276\030u,>\300~\377\275\245\234\262<\303iJ\276\371\332\233\274\323\352\363\275f\200\235>K\017\274>1$H>\215\234d\274\273\215\227;\351\3335=\314\367%\276\351\202\227\276\346\027f>\355\227(>)#\247\275M\376\212=E{\241>Ji5\273\255\246a\276e\222s>\310\2338\275\025\215\242;\016/\271>\251\316\332\274>\325\017>M\2469\276q\347%\275\237\030==\254\216\207\274\033\\\031\275\204eF>\347\274\256>7a\263\275\353\330C=`\316\360\275E\322\014\276\365\356\'=mB8>,#\263=\243\272\241>\322!R\275y\016\246\275\335\311\237=q\0014\275\006}\034>\250\367\221=\307\244?>\r\235\227>NR\005\276\003\224\337\275\373\320q>\rC\346>\245<R\275I)\016\275$O\215\274\337oQ\275\211\023;>\305\240\276\275}\253\364>E\247\216>V2\004\276\364\323\300<\206\333\303<*\255\004\276,\r\251>\005n\270=\353t\300=\314\235|\275}\313\207=Fr\225\275\274\314\305\274\354\031g\276\\\216\036:\367\352\272>iv\003\276\035\343\357>\001\220}<\202\225\324\275uL\036><]\242\276\324\323\261\276\243(\227>39\303\275tG\237\275\263\300\212>\314\031\220\274\177b\355=\310T0\276\272\016\216\275\362[?\276\037\004\247=_\222\216=U\216Y\276\2558\262\275\013\013V\276\206\352F>12\010=\262\205\216>\370\307\346<\302t\250<\030\t\314\274#\230\272=\250\210e<_\305\027\276\037\023)=8\335\376\274\355\312\232>\305\375\233>\346\212\342\275w\037W>\340\342^\276\243\t\002\275p+\374\275\230c3\275\274ET>]Y\020\276\026\233\244\275\321j\232\275.\237)\276\024\312B=XA\210=\341\257\271\2759\352\206\276*\3534\276\303\365\211>g\300\334\275\210\200W>fp<\276\326T{=\313\354\036=\020]{\2755\355S\276@3\253>\277\345_>1\2512>\374I\255\275L{\304\275\337\037\320<\347\277\260\275l}\267\275\275vm>;*\001>\327Z\214\276\261{$\275\007^\303>c~\233\274\234EZ\276O\201\031>p\014 \275\341\013\320=^\022A>\255\373\331;\210\271\036>n\375\023\2753\214\274\275[T$\275\005L7=}\371\000\275\210\336s>\010\243\305=\307\257\215\275/=\205<K/\346\275\316\207\330\273\245\234\323;\371\370\254>\204\031\236>1\344\022>\316\232E=\267\331|<\344\324\313<:F\364:\005}\023>\tVJ>\350\206\232>\201k:>m\255e\275k\325P\276!U\372=\303,\205>\257eQ=\267v\351\274\032\322\r=\252\376\030\276\372j\234=l\237X\275\251\316\320>\365\327\302=!\0065\276\034B\334;\307`\255=`\367=\276\247\001\271>u\222\376\274\361\265\226<wW\t\275Q%\202=\242\026\337=QZ\020=`r\214\276\266%\251=\260\361+>\256\243\022\276\355\006\277>\376\332\003\275\351\335\335\275\3101\n\276\265DX\276\332:\263\275\301\000G>y6!\275\265\201\331\274n 1>\222\2522\275m>\271=\330\240\253\275\360\330g<\375\214.\276\303O5=]\031M\274\202`\256\275\016=\221\2758\275\236\275\225\264h>;\032j=i\3447>T\232u=\313|\360=\212\212\235\275\002\331\236=\264\005\276\274\234CQ=\334\345\031>\232\230p\274.\370$>\022\241\'>n\020\t\276a+\024>\022\276w\276\264\324==\204\254\020\274\262\274\233=\020\2415>l\232P\275E\345\342\275\226\235\016=n{\220<\266\'\301=\030O\341=_\000\360=\322`\221\276\017\276l\276Ok#>G\220,\276\tO\367;?\272L\275\325\337N\273S\006&>Z9\243\275~\262\335=L,<=#\003\237\275\007\273K>\227\340\275=Z\245\000=h\237^=\340[5\276M\016\351\274\303\203\304=\327\t\267;\270G\276\276\216\325\002=A\211k>,K\230\275\352HL=\347\234\276=I\3459=\001\331C>\316\347o<\034)\275\275x/\245\275\304\333L>\327\312!>\350\366\334=\022%\312=1\007\366\2757\305\274=\276\031\270\275\t+\236=\376-\211\276x\2025>\276\356\317\275/\rL\274\365x\037>&F\204>\274?\203\275\301WA>\247\271\311=.G\260<\016\377z\275\205\247e=[z\271=\202\214\270=yzC\276Y\340\361\274\3354\004>\373V\201<x\222\225\274\376T\375=\3037\222<\311\336\236\275b\022\375\274.\300:\276^u0=\276!\227>k\2166>i\007O\276\207\300\237\275\033\226\315\275\3564\'\276\360\272\213>\277\337\263\274\307\247\200\273^\355\274<\225\274\271=\200\272\247\275na\260\275\003\320L\275;\226@\274\223\3040=\326,\010\276\226\221\350=\251\005\002=v\372$=}\027%\276\002\217\234>\342\013\357\275\347\370k=\316\375\022=\3271\350\275\n\331\276=\373\300\233=s\246q=\256\342\360\275P\3473=\035\327\026\276\t\016\277\275$\203\027\276\223#\353\275r\007\233=\037\203\271\274>S@\273\352\346\'=A}5>\350)\002>\321\266?<r\362\257\274\'`K>A\032\005=oan>\305\210N\276lI\216>\017\273u=\".\255=\260k\277\275}\315\013=b\371{\275\300\027\025\275\010SN\273\007Z.>\230Q\233>\217\340\340\274\346\323\265\272\034-\271\275\270J\366\275\004U4\276\035\370\334=z\022\036<\363{\230\276f\216\370\275\203\030:\275\371@\244\275\216\251;>Q\320n\275\247\223$=,\225\346\273r#\r\275\301\3659>\310\313\336=\001`\203=\257D%>\373sX>\'\037!\276\356$\225=\\\275\203\276\235-\316\276\363\272\336=\346k\353=\261\032:\275J.d=A\224$>\350K5<\357\365\371\274\270\372\262>\263`(>\035\240?>B;\240=\r\230\314\275\360\243\370=>\252\224<\234\035a>\277\342\014=\224\252\322=\037\300\317\274f\362\215>\\ =>\300\366\324;\035\245\324\275\021\304\226<\016\373\277\275O=\273=\261\014\007<\\K\211>[f\'>\321\2730>iQ\262=t\345\372\275)\007\332\275P\177\023\275\241\034\033=\351\270]=\240\237\200={\212\037\276\251\244.>\267|\310=^\236\212\273Q\037\276=\233\t\337;|:\345=\00141>\266\261\201=\005\321\310\275(1\242>FE\035>)*\003>\263X\010>\254\374#=\232Y8\276S%\256>b\206\216\275\307o\354<\2016\247\275\003\376\n=\264\010\221\275y\243\234\274Y\257|\276r\264\240\275\265\304\315>\204a\200\272R\235\303>|\002\022=\326:-\276\363\354L>\276\254\000=y\316\250\276Gi!\274\370\202\330\273\025\364(\274\376H\242>8\210\206<\342q\223=}\356\326\27556\317=\263b\022\276\332M\273=ok:\276\363\014\361\275\020\361Q\276NE\276\275\266J\014>\344w)\275F9\306<P\356\025>\030\014\237\275\332>U=\334\204\202=\020q\252<<\306\272<\177\257\005\276\251\3035>9\300\016=+v\347>q.c\276\267\355\270=\257\336\177\276\375(\323\275S.\364\275\331{\255=\021_<>\343\377\221\275\367\232\007<H\324.\276\334\010\204\274NQ\225\274\250\2074\275\364q\005;\353\277}\276\013\273\371<e$7\274@o\311\275\356\362\362=\327\275C=\3738\367<U\no>k\341H\276\240\266{=(t\202=\363@\201>5\312A>\013\306\000<\261\034!\276\270>\304=\224>\002\276\233\264\200\276|&k>\213\213\310=\360\2215>\336w\014=5\n\360>m\307\270\275C&o\276\342x!>\247\037\275<\027;@>\306P\222>\267\366v=.\212\354=\247\003;>p\341\300=\342\031\n\276\r\360\240>\225\344\216\275\250ea>xc\232>\334B\245\275\334\252\027=\222\221)=\255\263\210\275D\370\235<\267\264\245>L`\030>*\2026>n\203\341=\025\326\374=JQ\013\276\347\001c\276+ss\275L\347\020>\334\244\215=\302\246\007>\013\013p\276\\6Q=W\003/>SY\242>M\236\235\275\226\215\017\2761s\241=\030\321\213=\304\343\240>>[\233\275\024\006\245=Bk\264=\310\225V;\247\326\022>\234\227\003\276\340^\320\275\'$\251\275\013\321-<\223\362\335=\235\3763=\264\3673\275\'E\033>\306\312\264;\357\004\265\275\372~\213;\031Rv>\352v\315\272\034^\377>\004\264\371<\356o\n\276\357\310H>T\262\006\276*\252L=\244\262\221>\023B\356\275ndM=G\247\237>\204j\225\274U\002\034=\211\310\030\276\356\020!<h\002\342\275F\325I\275\001!\331\275d\340\243\275@\3704\276\360\340B\276\275\316\211>5u\026\276\2412:\275\375\272\276\275\237\240\210\275\212\207i\275\003Tb=\266%\211\274\274]A>\342.;\275;\013#\274\366$\260=\204\032\353>\013\2650\275(\207\202>_\263\221\275\377\216\262\276\317\016\240\275&\202+>\031\026\343\274\244zR\275K\017/\275\244\243\211\275\024u\256\275\t7C\2769\272D\275\335\307\226<w\304\324\276\263\314\267=\350\320\"=7\227\207\276\307\263\251>\326\246a=0\270_\275\214r\271=W3\356\274\332\211\020=\021\235\342=\244%\317>\207\276\215>\237\262d\276,q\215\276\256:\023=\016\276\001\276\265@>\276\300P\237>\263}s>`<\034\2753\350\222=\007@\366>\375\331s\275\251B\230\276Q\334f>M\351\352<0W\010>\211Z\211>\014D\225\275\367;A>_O$>\327\221x\2754\323\035\275\354P\303>\224\0109<\032\027\244>n\371\321>\010\3407\274\323m\332=\014H\221=t\365k\275>\340\270=\023.\246>\241!\225=o\324*>\307\306\371=\212^\022\275J\334%\276\257nC\276\216\266\230=u\227P>\253\227\370=\217\036\270>!sG\276Fs\014\275J\0143>1\242}>A\236L=g\3227\2758mG=\235H\010\275t\031w>\236{\215<K\337\027>\212\346,>>X4\275\316\017\313=\205k\035\276`\025\221\275\r1\035\275\250\261g>U\354\026\274\2476\016\273\200\242\356\274\240\346a>\240\252\361<\272\372\r\276(.)\275\032\016r>\316\237g\275\223\254\325>\206\237\037=\036\331\n\276\362\027\005>\232\253\020\276\310\351\312=\023\301\276>w\310\354\272\275-\033\274\301\023\252>\260\316\317\274\031Z\262=\000\251L\276\0022|=\246\212\317\272\274\360\r=C\261\243\273\344nj\274\r\270\001\276\027X\335\2748\350a>\311X\324\275\222\351\342=k;\233\275\324\252\306\275I\237\216=\372+\013>\266\006~\275\213\256o\274\210\336\337<8u\344\275\245\030\320=\036j\257>\313\323\217\275\253\256l>\373\372\252\275\"\023{\276\346\357\361\274j1\265<\022\357P=\200Y\323\275\3477\203<a\0010\275}\337\205\276\355q\246\276\344E\332\276\312/\031\274U\351\217\276\316\264[\275\324S\031>3x6\276\326\230\244>)\252\246=\350,U=\272Z\021\276\320\n\336\274\205\251M\273\013\005\021>Y%\307>\035{@=W\360\231=\033\007*\276\236]\337\275k\361R\276\030\261{\276\304\232B>\363t\007=\334\242P\276\000\342\244:un\314>\347\317\225\275^f\321\276\207j\217>X\202\310=Y\262\256=\246\310A>EF\025\276V\212\001>\253\377q>\342)S=\212-\016>\323X\265=\370\255\300\274\320W)>\030\031W>6\234\030\275\202/\222>\314k\231>\374U\223\275\273\203T=\237qL>_W\207<\221Q)>\037\340\246\275\261[e<\000\225\242>\034o\210\276\246\204\017<\222:\354=\202\273g>\234$\325=0n\207\275\361\022h>\005\210^\275\024i\313>\251h\312\275s\231\267;\370l\023=\031=S=\371F\211=:wV=\322\244\255>\262\326\245>\365\256\r>\021\252\240\274\273\303\342\275\354\264E\2768)\321=\220MH>\326\006\327;D\247\331\273\256/\337\274\033\004\211=\267\267\010\276\227M\234\2757\2561\275f,<>\344\207\007=\310g\332>\t\330\010=J\312\030>\341R+>gL\027\276\224e\327\275\t|\302>\354\373\223\274\276\274@=\356O\210>\317\013\207\275\334\214J=&K\326\273p(\033=\220e\t=\2022\261>SIs;\r\306Z=\364\307\031;\331\254\027\276\3703\207>\262\243+>j\2002>|\n\303<\'rP\2766\272s\275\206\245\222>\315\346\366<\257Q\362\275\"\302\337<\3122\351\273!&f>t\357\275>t[\323\275?\217\213>b\025\366\275\306\247\212\275\035d\327<\234\007\336\275(\370\250>\272a\211\275\336\342m\275\305\232\300\274\016\227u\276\366\235\360\275\034\366\374\276J\227\205\274\260\353\216\276\021\001\261\275\216\204\022>\343\301T\276\320/$>\232/\215\275k\020\022;\2200)\276\260u9\275a1\010\276D\211\344=\2464\216>lo\244=\200\025\"<\322E\216\276\224\337\227\275\325\366?\276\362^B\276\247Y\004=\016B\230=\005t\302\275nf{=y\347X>2\321\r=\316\376\207\276\037!0>\322\016;>\2027\331<t\022%>H\306\024\276\030\370\361<\216\317\241=@l7=\242D*>\027\332,\276{2\204=i\317\212=7k\031>\260\025r</\332\255=\236\320\365\273-\226\3218\016\202\225\275\306/\337=\200U\202=\036\330a>\340P+\276]\226\004=T\256\226>n\245q\2763o\247<\275f\r>\334\022A>\271U\031>\266z\'\276\346u\231>\017\304\236\275\231W4>\327>3\276lU\225\275|\205D<M\302\245=\312\213\376=E=\260\274H s> \302\214>\033\377\244>H?!\275\231_\340\274\307\211%\274\235\203\206>`,\335\275\037\014#\275f\276\332<\325\207\203<\242\254,\275>\025q\275\302&\204\276\r\317\301\275w-b>#?\372\275 \007C>\t\0046\275B\036\211\275Ef\022<!8\202\276\240\335K\276\246\251\352=\317P\217\275\335r\253\274a\245|>\020\327/<\264\224\313=\236)$\276Qd3\275\320;U< 6\204>\332F\235<\201\030\377\275\272N\n=Ll\200\276>lV>a\230\235>\273\227\310=\216?\202=\214\002\277\275\206\2271=g\035\203>\350I?=\245\264{\276\343\223\000\275\376\351\230=}n\025>b\263\022>\016\215\201\275/\021\236>y@\002\276\244\327f\274\217\263A\275Sf\267\275\220-\316>\242\336\370<\000\277\317<_\222T\276\222\177H\276\243\233\'\276CF\310\276xU\270\275\264\257\233\276\036\035\310\275\362\004\314=\202R\273\276`T(>\374\024\221=\244M(=XK?\276<\215\032\275\022?\227\275\302\264V>\3413\244>\235\024\222\274b\272\006>H\327\234\276\276\332\310\275\204\314\334\275v\243\263\275\272\'\270=\373\250}=\343,\001\276\203\010\214=NV\302=\276\202r=\307b\315\276\272p\266>\305\211\357=\304\021\354:\017\244W>\376,\030\276\027II>\257\3134=\205\271\177;dD\206>\n\341)=*\331\265\275\201\343\323=\234\237T>Uj9\275!\267\316=\322\034\344\274\242\2219=$g\215\275\315\301_>\037oa\275[\264\037>\272\267\205\276\3540\223\275\354dd>Gs\341\275\024\230\027>4\313\362=\323S\226>\212\224i>N0V\275\356{\\>9?\224=?(\033>3\361\205\275FE\210\275K\377\214=\322E\326<\250\200\260=lM\\=\263\254[>\301\306w>\024\345W>\254X\035\273\203\253\030\276(\335\t\276\2677\022>\262\336\254<:\355\251<\321o\302\275\356\006c\274\206\036\305\275\026Y\224\275t,\004\276\273\361\346\274)\263n>\277\366\342\275\304d\201= +_<\274\321\252=\212\273B;C\360\350\275u\327\216\276\255Q\237>)`\304\275\304\252\227\274$#\222>J>|=\216\317\307\273\251H5\276\214\277\036\275l\264\273;W\033\271><M#>}v\022\276\036\271)\276\216<?\276\346c\221>?\340\277>\221\252)>\232#\246\275\005\2068\276\366M\'\275\333a\312>\201X\356\273\2674{\276\365a\343=\304K_=8\242Q=\255\265\032>\260c\327\275Rr\205>\005\351T\276v\271\251=gq\354\274\370\277E\275\373\023\216>\355)U;\002!3\275\202\354H\276\262\336#\276\327\331\006\276\036\006F\276\254\254\212\275\301\202\346\275w\227\342\275W\261\264=\223b\266\275\005\177\356=\013@\230\274\006\374T=\200\262\005\276p\222!\275\374PJ\276\220\n\031>1\'4>\324\376\330=\247\275\314;\334\267\'\276\256\351H<\214\360\313\275hm\370\275T\315\322= \230\026>U\210j\276\030\001\310<\372W\230=\320\nV<\333?\010\276Vf\204>j\322\262=\364\344\257\274\202\234\255=*\357;\275\001\035\276<$\332\232\275\274\376\333\274i@\006>+#k\275\305\023e=Mo\266<\276J/>\014\\\365<c\014I>d\360\005=\300\313\322;\t;\244\275\330.\263=\025o\017;\tbI>(\332\331\275\000\360\212;x\023z>\036s\022\276l\257\226=x\274\255\274\003\004\265=!\276\361=\370>\323\275\215\200#>@<\347<\235#\311=\001\221(\276\202\363\320\275k\325%=j<\212\275\265e\035\275\021\213F\2752\364?=.\250.>\362\026/>\021\332\243<\226\207\326\2758\'\323\275\351\262\202=\346\345\343=\233\032>=g\245\210\275\302m\352\274\332|\262\275\245Y\024=\r\230\212\274\n\353*=nhv>\345J\331\275\354\330\243=xn\313\274f\3565\274\t\255\002=\276\371\305\275\316\365\247\275\366j\005>\377\264\245\275\240\032\n<-Ub=lh\237<\250*\262<d!\310\275\210>\220\275\365\212\230\275z;\005>%a1>c\251\203\276E\1777\276\240\273\n\276C\022*>\014\377\236>\370\353F>\253f\212=\037r\261\275\220h|\275w\344S>G\025\203=<2]\276\205\2405=1\276\341=#N\270\274L\303\356=\340\304\n\276\312\327a>rI\005\276+\032y\2748\311\274\275L\331\304\272\276>\207>-=\246\2757*\301\275r\204\364\275a\314\212\276\371w\300\275e\262g\276S\360\027=\313*Z\276\352\245\n\276\227\306\004>\347Ye\276\014l\340=\263\260\300\275\031\204\254<H>\364\275\020P\n<\244\204}\274\377D\355=h\3442>\002\304\030>\241{\005;\030u;\276)\327v<{\000 \275\262\0266=\263\367$>f\315\353= w\014\276i}\205=\343J ;\"\361\334\275{p6\276\357\001#>\215\300\006>\212\334K<5\356\331=6\206\342<\365\316\014>\257\257q\275\010<\002\275\026re=\0134%=\013\201\211\274\306\235\307<\026\316\346=\234|\276<q\325\'>\366\307\356=\345\037\221=0\377\222\274\243\0028=R\035$>\021z=>\033\211V\276\034\347\014=\320\353,>\003\022D<P\235\020>y\277\213;\026G\325=6\022\t>Y\024O\275\033\350\013>\261\345\307=\016{\235=tuP\275\037\352\004\275\302%\304=\207\313\'\275A\266\326==\223\361\274K3\304=te\004>\334#2>\220\027\004>,Z\004\275Pz\221\274+\305?>m\237\224<\220Z\277<{\230\230\274\363l\315\274\264\336\362\274L\203\201\274B{0<\231\330h=\314\306\177>\315\220\177\275\262\023Q>F\005\241\274\270\255\330\275\273\247\256=\325\251\337\275gY\035\276\333\030\203>\373\345\212\275\333(\234\272\302\371[>\013\325\223=w=\202\275\206c\367\274\277D\244=\017t\030=\241\354[>\302<\204>\337\010\007\276>\345\302\275MX\205\275\364\234\270=\363E9>\316\350X>Z\235\025=\345\007\223;\226\231P=\332\021H>\352\252+=\337\237\002\276\207n\343\274\306!p=\001d\226\273f\036\204=.\257\352\275\347N\325=\013\227A\276\260\004l=|\243\247\275*z7=.\251l>\361\373\200\275\037\326\372\275\337(\220\276\n\234\260\275j\323\033\276\316\223\251\275Y[s\274\320\263G\276\372\034/\276;F\342=h\357\022\276\206\334W>k\024\337\275\262ro=\023\010\204\274\246\"Y=\004\233\205\275l\304\351=\235O$>\373d\022>D\211[\275\275B%\275>\207\202\274\327\004\222=\302l\006\275r\255+>\332\266\013=\205D\231\275\262O\214\275@\226\276:\333\307\013\276g^\027\276X\223!>\306>\345\273~\024.=\026\326d>\327\243\236\274\303\353?>h=F\276xM\202<\226\033-<\002\274\330\272\375j\373<\276|\027\275\256\376\007>\272\256\271\274Ds>>\347\014\021>&Z\252\274\364\231\211\275\340\324\002\274\201x\024>\335|Q>.\016\366\275\264\327\203\274\017\023\014\275\360\303\205\275%#f\274_\234&=F`M>=\236\255=b\237\372\2746\003*>&6S>\214\251;>^\217~=\323\233\035\276\211\235,>\372\335\000\275\271\304E>z\3459=\264\006\337=\374\246$>2\3450;Q<\300=H\310B<H\315\344<\001x\336=*\263\207\274x\275\244<\272\331S\275Ek\223=\357\301\211\275\220\021\374;;*\360\274,J+=U\264\373=\227\010\230\275\345\022\t>t\261,=kS\010\276\333\016\033\275R\223\177=\331\316\007\276B\314\037>b\206==K\234q\274\322\342\236=N\375\357\274\252_O=\316\213\212\275P:\310<\364\177\372<Q\303\321=-\004\021>\373\207\222\275\227\t\367\275\266\367l\275\021\315\236=*Jh>\342\220\211>\2026_=~\244\014=p\360-=\370r\215=G\207\214\275\340\261\236\275\275\206\236;\236\344F=\304y\"\274W/\031>\202\227$\276\272 \231=Q\237Z\2760\030\231;\032\327\216\275\250\353\355<\333\3248>\211(\206\275\316\2417=S\354\233\275b`Z=(PF\274{\227\233\275\202Sl=\240Zy<\262QZ=\007\243\205=\211c\220=\222\305T\275xJ\030=\332\252<=Z\255s\275p!+<\300\013\202\275\200\314Q:\340\245\240;\016\334K=k\357$\275\304X\303<n\271\223\275@\233\216;\006\271\377\274dY\212\274\256\250\264\274\006\200c=\330\302Y\275\207\260\245=\220\347\270\2748\3515\274\225\'S\275l\333\256\274L\320\233\274h\320V\2748PX<\331c\224=\024a\214<0_\371\273F\340q=\340\2453\275\305e\240\275\310\333\340<\246\375\240\275\252\3136=\200\353l:\326\275a\275z\335e\275\'\356\034\275H\2033=_\207$\275p\016%=\261\277\222\275\232<k=\010\210\r\275\\\277S\275(\343P<@\312.\274\204\017\366<\264\363\236\275\3054B\275\242[\215\275\370\354\223\275\267u>\275\370\232\001\274\314,i\275\334\274\006=\n\275\230\274\320B\263\273`7z;\273\314\"\275*\221Y\275\242\304`=@N\347;\350Z(\274\232\n\335\274\034\252\232\275\231\"W\275\356w{\275\350>m\275\312\345:=P8\274\273\347\236\177\275(\246?\274\300\326\274\272r\307@=t=\034=\246\026h\275\265\353A\275\260\036\t\275n\3157=PY\373;:\236p=\252b#=\\\256r\275\367\215\215=\014\301\377<_V\243=\3407\257;py#=\242\014\217\275\344\237\256<r\356\263\2740\361B\275\266\375z=\233\241\230=n\364X=\233X\225\275\010\312`<\360\375`<m\036\204=\026\rr=\020\255\207\274\000\244\024:t\212\265<\026\234\"=8\365B<\225\327\224=VA\326\274/C\210=\305\321\222=\000\027%=\226V]=\364UV\275!\010\222\275\360\2342\274\000 \270\267\000A\225:\314\020\210<E\004\205=&\r&=\270!.<\332\254\014=\350xp\274\362h|\275\324\364}\275&\326@=\363\256\232=\340\013h;(4\254<.\365\217\275\200\021\036;\240\236\247;L\027h\275X\237\236\274\270\3261\274+\220\240\2750A\356<d\"\010\275<\316\221\275u\240/\275\274\277\365<\200\243)<\244\343\223\2750\372;<V\216\244\275\364\304D\275\300^&<\203u\243\275\355\352\030\275zVY\275FWK=\000\252\3079\272Ej=dD\243<Ur\231\275\220\324\023\274\036nF=\377\314\030\275\020\250\200\274`\216\\\274\033\030d\275\320y\326\273\300\206r<\373E\207=\212` \275\206\005\226\275\227v\234=\357\256\231=\320\335\357;\000\244\263\271\300O \273\333\364%\275\216Wk\275OO\220=h\372]\274`\320\010\275\245\244\243=H\201\026<T\340V\275`\277\262\274z\277\'=8z\327<=\032\204\275=\t\205=\370~\030\275\266E\007\275\233\336\220\275\373<T\275\222\347\213\275\230\\k\274\224\274\257\274\010\232\247<\300m\244\2750O\220\273\353\014\224=^\270\036\275k\034\241=\327^\245=\340\235\211<\304\277\204<\246\t\000\275\370} \274\026y\231\275\314\212\231\275pP_<e\374\213=\374\003\261<\231.\210\275\260\035\326\274Dc\033=\346T\000=\221\220\217=<\351/=\200\205);p\245\310;io\225\275d\233\005\275\000\254\3328\312\212C=\240\203\301\274$A-\275\310\260\302<J\273\302\274.\026\016=\230\260\335\274\356\263b=l\217\266\274\350\321_<\034%\264<\'+\206\275F\377l\275|#\235\275\027\234\221\275\020\375\277;{-\220=\013\335\242=\216\242\374\274\270`\255<\210\2572<+c\213=\275\230)\275\230\216\205<\324\300\365<\200xL:~P*\275NXe=\372e\224\2752\014|=L\230\220\274J\345v=\223\375\227=\342\246\272\274\n\017n=\306\027\364\274\021&\020\275\213l\202\275\002\3739=\236\037\260\274\220g\301<\rX\231\275\336b\365\274x\236\204\274\346\2439\275~\t_=\034\374\373<6\272\206\275x\322\006=]\342\223\275\243 \245=\356@~=\200\215\257\273\310\002m<>\243w=\3452\231\275k\245\207=\205\205\n\275X\323U\2750\302\235\273t1\004=5\265\233=@\2243\274\310\364T\274B\016\177=\275\010\213\275^\024m=dz\226<\242O?=\000\342\252<\031:E\275h\225!<\240\373{\273\250\002\355<\270\177\213\275\276U|\275\006\366u=8\300\217\274d\216(=\021x\227=\374^0\275\030\3471\274`\2254\274\033N\224=0h\326<u\t\200\275h\314\230\274\262\261!=\370\212L<`\345,<\026a7=\350\034l<\356\217\244\275\257\020\235=\375\270K\275\345\361\235=\033b\203\275\006t\334\274<\373\273<\370\177\204\275\n@W\275h\332\016\275\22763\275\362\251]=\252\325A\275\004\202\323<\t\266\221=\340\\ \274\374\007\222\275\230\036V\275S\016\"\275 \024\374<\250\177m\275\000?\204\275\200\006\200\272 \375\320\273\200V\377\273\336\360Q=\216\251R\275\004\257\007=5\274\214=`\307\333<\210\236\326<6\206\203\275t\262|\275\000\214S\272,\272\370<\264\257\343<\200k\340;\014-\334<Z\361\374\274\352-W=\260pW<\316\217\207\275\337;u\275\312\373==0\244\375; wF\273\025\r\005\275\240b4;\002\303s=\233Y\215\275\346\235\235\274o\r\223=\313\240\201=H\033\221<\260\253\007=\360J\331<\212\221e=0s\363;\036\2226=\222>y=\365\264\004\275\375}\231=@\230\336<\\\033\301<\3401Q\273\017\235_\2753\237H\275W\322\241\2750\265\244\275)\016\"\275\220\216\346\274\000g\2659\3416\241=\306\311*=\240^\243<\273 \212=\360\343\221;AL\233=\242\000\373\274\272\337v=\310\207\234\275!\362\205\275p\013M<&*-=\014\350|\275IlW\275\000r0\272X\007\302\274\223\212\202\275\256\215A=\232\374\014\275q<9\275\351\\\202\275\212(\032=\300\203\327\274\325i\227=<\364\\\275$J\213\274\337\336\211=\010\347\306\274\325=\"\275\276\253\r=\320&\241\274\002\313\303\274\302>S=ni\005\275bL\000=\005L\224=$x\201\274\357\321a\275H\321+<xLf<\020\262i\275\222\311J\275X\'\212\274\010\227u\274\221\3042\275\320\221\311;[R\202=\235\010\207=\200\301m;O\004\230\275\270\305\202<:\255|=\310vr\275/J\200=\300\306\014;\355\332\t\275\250o-=|\250/=\243\r\217=\260\256\003=z\201)=\221\365\212=\356BQ=N\222S=\010\256)\274a\344\210=.\263\036\275K\366\241=\036@\031=\220m\360<\306k\004=\210:\315<\316\220{\275`\364m\273vp\036=J}\022=\027\002\230=\343\347\006\275@\277j\273Y\261\242=[>\207=v\246\221\275 \3422\274JP\020=C\210\222\275lg\027=\330\345>\274\201\002\246\275\350:0\274\000\'\013\274f\017E=S$\211\2750\024\373\273\337\021\202=\347D\215=4\273\035\275P+\035\275\334\356\373<b\234\254\2744\263j\275M\242\221=G\031\230\275\222\254\351\274\213\217\206=H\243\246<\\h\307\274\220\303\361<\222)T=\004\001e\275\240\257D;e\314\016\275\300b\013=8\214S\275\305,K\275\376cA=\333f\226=\014\034\314<\234\201\337<B\3738=\241\222\210=\344\254\236\274$\361\226\274\210\266E\274^\336\001=Y\335\220=4\302\020=\000\273\300\273\255!\245\275\370\207\316<Pw\317;\210\003\016<!H\217=]\"\201\275I\275\206=L6\252\274\367\r\203\275o7\240=\324,\202\274xZ?\275\302W\022=\316\217\300\274v\247&=Ch.\275\200B,\272\024\302\350<m\353\235=\000=\270\272p\200\275\274xBK<*\343\006=\350\320\016\274\340\220\r\273@s\372;\000\027\217\272X\273j<\220`\210\274\272u\300\274>\304`=\210\362^<\252\314~\275@o\246\274\261P\227\275\236\3742=\360\270\272<|\037\225\274h\257\241<@\333j\275\235V?\275\213Q\207\275\016Wf=\030\001J<\313/\213=\364\365\306\274\027\275\236=\370\250Q\274\232#g\275\364\016\r\275\232\323\314\274\020X\266\274\224\215\275\274\3140\246<\240\320\261\274\305{k\275\344K\374\274\233B\211=0\017&\274\310\266J<N\035\\=\004\200\236\275\300\316\236:\224e\337< CJ<wF\214=\310\032Y\275\311\202 \275p0\033<\020\256-\2748iF\274j\rC\275J\314\'=q\303\227=\210\252\220\275\037\371\024\275\236\340S\275<x\237<\301\230~\275\320\377d<\225`\204=\032\2619=\036~\303\274&\344h=\364c\337<\301q\213\275\320\200\337;\010:(=\256\010\336\274M\330$\275mU\216\275\256\017\014\275\372\376\367\274\310\000?<\354\332\374<X\023\344<\000\035x:a\3048\275g\323\033\275\276zp=\344\232\r\275P\217\214;2\230\370\2744\204#\275P~\010=\261@\245=\010\032\220\275\324N\021=\310k\235<\343C\236=%\324\237\275\230\016&\274\363FV\275\320\007\005\275\250\366S\275h\254@<$\303\344<\300\023h\275*l\001\275\3723\232\274\250\2777<\265;c\275\362\225K=_r{\275\337q\237=55+\275v9\247\274a\235P\275\020\375\211\275jgR\275x^\350<\372\225\364\274\027\003\240=\202f;=\274uL\275\362\3744=p\213\211;\206U\214\275\206\2527=RK\030=\030|\000<\250\240j<\223\\\222=\207\265E\275h\211t\275\005\321\233\275~k\237\275\226\214:=\253\372\212=z\023k=x) \274\372v\321\274\252XY=\270\034\033=\037$T\275\237\005E\275\314\300\323<\200\271\241\272\320\201A<\314Z\203<\210|\023=\030^S\2745\267\207=\360D\016\275\256-c=\200\317S\273\250\003\367<\020K\225;\273\311\213=\320/\267<\211\3614\275]i\214=R\257D=\000U\'\275H I\2749s\005\275\330h\002=\234A\342<\000\007\320;\260}\211;\025\307\231\275\000C\252:\000\270\357\274\365|\020\275&\242\277\274\317Ok\275`\262y\275t\032\215<\362_\n\2756h\360\274\001|\027\275-\034?\275\240(e\274\204F\337<p\366\317<\316\246G=\302?\240\275\277V\244=\350\237\000\275\374a\267<\200\3709<\266\266\264\274\316\200Z\275\232f\207\275\374\212\205<\200!z\272\260^;\274\356\256l=\010\023.\274\010\3000=\'N\234=P\340\341<\237L\210\275(H4\275t\002!\275\237\010\236\275\226Q7=\3402\225;`H\242\2740[\276<\276\275W=\314\341\324<T\035\256<L\230\205\274&\035p=B\035P=\377\363\216\27504\344\274\036z?=\306\364%=\230\020\036=S\310!\275p\023\207;n\223`\275am\212\275\306e;=hA.=\336\303\370\2744\334\334\274 \\\034;\360\342\235;\017\217\226\275\020\222\212;\000\240\222:\274\232\200\275 .r\275\310\217\036<\370\024a<\3509^<[K\235=\362\2737\275\340e\307\275\305(\366\275\022\316\310=:\023\256\275\262\\\216\275\001\301\025<\335\014f;\316}\002<\200:\211\275\225;\213\273&\252\017\275\232+P\275\005\361\230=\315\'s=\366\034\316<\317\244\266=\224j~\275\354\310g\275v\303o=\345X\200=\220\244S\274:\325G=\256C\266=U\252\223=\310\254 <\326\314\213=\346\352m=\240y\311;9@\237<=k\215\275\010\244\317<\341\346+=Am\252;8\265\261<\324\376\005=\336\203p\275\312\n==X\\v\275\2004\342<\304\345\324<\022]\275;\374Y\236\275\027\237{\273\014\350\203\2753\252\213\275E\356\002\275i\000\374\274R\377\345\274\257*]=\366\347\372;D\312\317<D/\007<\375\216\224\274\276{B<\007\273\307<)\320\346\274\025\210\306=\347S\201=\322Y\023>\272\002F=\274\347\006\274\004Ly\275::\207=x\027\232<\212\247z=V2Y=\3619\205=\233\343\273<\255\224\265<\215)u\275\006%\336;oG\240<\360\242\211\274\241\272\337=s\036\337<Xl\373<\340Z\215\273h\027\215\274V\200h\275FoE=\037\307\201=@w\007=\212(\271\273P\251\277\273\002\233\274<\234 \357<\335\3368\273\000/\2109\231\263h\275\374O\352<3$F\275\202\344\240\2742\310j=\267\177\372<h\312\344<\231\311\207\275\300\324\033<8\303O<w3\222=\034\326B=V\\\\\275\337i\021\275\265r\307<\300\365\243\272,CA=G9\202<Rd\315\274\356j\327\274\000\265\240;\007\363\230\275\243-\313=6\312X=\355\265\230\275skI=\270\374(<\264~\323<\334\252\336<\035K\210\275\350xN=\351p\036\2751\261\220\275H\365\223\274\0043o\275r\240E9\225[\235\275\300\023`\273\241\314\216=\213\346#>\331\364\257=@\221\323:\350\321\207\275\004\362\310\275j\350\327\275\337\030\230=HD\305\275\347e\350\274[F-\275\037\373\312\274H!R\274\251\"\233\275\311Q\212=\264\005\330\274\376\353\021>\365\236\333<\320\231\020\275\376\3770\275\350kG<\300u\223;R\214\r\276\275&\300=\324mW>\364\220\243\275jK@=\007^\211=\261;\225=\300\3722;Mg\266<\032\205h\275\220>\027\275\2019\233\275\030w\227\274BI\205<\264\376~\276\243*\377\273\203\310\327<\305^\001>\276K\322\275\306\251\317\274\036\nO=\n>4=\216\302?\276\360\316\033\276\251\'M=\216\206\274\275\262\300\211<$|L\275\023\014\232=f&]>\357\320\201\275\360w\253=\006\376,>\371\327\245\2759\372\256=\206\'^\275\031\206\025>\204\256F<:T\306<9pD=\036\307\022\276\327\205\230\275x\253\202<\230X\217\274\231\t@=rB\262=A(\237=7\033\244\273\263s\021\275\257\203y>\332\366\365\274\335\256\032>\177\017\305\275x\246\236=sQ\036\273{\240\036>\330N8<\233,}=ySC\275\222G\220=\317\242\034\276\366\257\254=Ld\003=A\205\017=~\312\270=\310\323\300<\036z\321\275\230\n]>\036~X\275D]X\276c\377N\275H\006\364\274\206Q\030\2750\366\234=6\330q=\352\025\214\275*\204\265\275\236\227f=39\031\275\363\345\024=\350\021\306\275\014\221/=\016\355\027=7I8=\225\377\372=Ew\001=\232\312k\273X\337\036<\333\326}>\322\243\332\274\246\263N\275\370\010\211\274\234iA\275\333\333\361=aw\242=cv\211\275\244\312;\276\306\305\236\275\346W\363=\231\347k\276`\261\242<Hq\026>\330\305\n=G1\304=\361\020!\276T\316\267\274K\371`\275\027\374%=\211\010\342\273\026\350R\275\366]\034\276\037&\335\275X\026\365\274\025*\030=\355\010\361\275\020+r=\347\365\301\275\312j\274<\272P\343\275\036\225Z=\205\3418\275\227O_<\211z\200>\027\333r=\237\255f=>\331;\276Q\331:\275\363\307\246\275\330E$\275\237\226\316=r\024t=\326\277\221\275P\004\271<D\2111>6\316x=^\247\374\275\221o\312=JM\014>Z\240\032=j\354\363=\330\332\226<\336\306\002:\3603\004\276\022\316\264\274\027\031\377=\360/\247=\2727k\275\277\320\020>*\367#>-\272\033\275^\326\217<\361\211\031\276\277L\361<\023\235\216\275?_u>\355\346\372=l\027\300<d\256\335;\361\264\245\275\352\341\000>\335\343\335=9\321\313\272=\2612>\330(\262=\362f\005>\231\233\300\274\366Y.>\330\263<>\214!\261=\225p\204\275r\017\277\275\225\260\005<L\2362=\366hw=b\202w=6M+>L\203\234\274~\221p>\373]\251=\024\0339>\256=B\274r\032\360\273\213e\301<b\360\301=~\363\026\276\276/\211\275\321\027F\274]W\335=\341u5\276N\225G>\332\204e=P\272=\274\254\303\016>\r\231\223=\344\330<\2763uZ>\035k\223\274!\301R\276\035\203Y\274\317\264\352\275\033\316_=\302\300\275=\216\233\214\275\241\233\242=v\243\344\275\326\t~\275#d\222\275\341\026m>\222\345\300\275\376\245\234\275\243dN=\003\202\272\275=\303|>\313\336\233=\262f\204=\225\2010=~\3523>P\346\002\274<\227\320<\010\371W\275\215\322\202\275\372\357{\273\213\260\224=P\337\351<Tf+\276\341\264E\275z\007)>.\206\204\276m\325\007\275\0060\022>\"6\211<\253\303d>t\372\334<Y`\231\274=\363\016=\370u\367\275\350\362\252\274Y\371 =\000\364\014=\200\320\360\275RO\025=\241E\216<\375x6\275O\320)>;h\204\275\312\346\331=+j\324\275~\227J\273\031\020\273<\354\351\342<\3425\340=|\300\007>c\301\235\275\\\342\226\274JMc\275~t\310\275~^\233<\177\350:=\330x\373\274\264,\263\275X\344K\275\t\337*>\370C\020=Yc\361\274\272T.>\370\211\310\274\251Zs<\367\334(>\331\205\373\2749\367\036>\303\341\345<\0241*\275\035\222i\275\241B\261=\317\340R\275\313[\247=\264\344\214=7\332\252\273M\244\014=\264/\033\274\010\360h\273V^\351\274\301,\033>K-7=\331}g=ax\306\275\374\246\026\275@\032\241=\351.\237\2756\017\334=\214\213\214=4\370\030>8\352\030>\304Z\320<\255\246o\273\023\347\t\275\347\216N>e\340\004=T\247)<8\033\252=\320\247\277=?{\261=\335+\373\274QtM>\010\246\207<;\362V\274o\205\277=\025?*=\264\300\027\2762\001\260\273\324\026\224\275\207\367\000\275\267\252\347\275-\237\300=\303\035{\275\024\263\264=9\215[\275\360\253\022\276\222F\007>\021\302K\275\372\256\217>\346\202\002=f/\216\275\343\034\212\275N\236\253\275\007P\246\275~<$>e\326Y\276\310\031A=\256\224@>\274n\253<V0\265\274\200\323\201\275L_\376\273\035\236\020=\337I\323=\337v\261=\034_\000\275o\204\"<\334M\017<\317M\027>\215\331\273=\376\037e>\304r\230\275\n\207p\275,\225\333\274\013D\314=\260\243\242=\201\201\303\275\330FX\274\325\025\035\275X\240\377=qx\004>\331\300m<\320+n=M\212(\276\211>\250=)\343\244\274#\377\237\274\200\336\007>+\344+\273w\304\363\275\207R\177\275*\225\t\276\223\364(\274\037\273\007>a*Y>\320B\232\275\253U\225\275\340\325]>\204\245\247\275R\315\360=\035;\335\2754\034\217={\202\250\275o\030\361\275=\245\022;&\032\265=\3061\364=\213_a=#o.\275&\237\322\275\204M\220\274\032\004\271\275x\360\202\275\377Ar>\000\031N=u\320\304<6\237\334\274\324\204\230=\315\211p\273\252]-\276\240\335\225=\366\331?<\243B\342=\034_\n>ME\226\275\312FK>\276\006\254\275\312\315*\275G\260\267\275\"\355\373=L\330\202\275\374|\276=\306;2>\255\342\251\275\236\260\014>u\313\250\275\356@\206\274\340\353\025<\263\024\373=k\3574=!\"1>Uc\203\275\340\217D\274u\256k=z] \275Uf\326=A\274\354=\016\233h>\017T\314=\203\r\221<\2234\\>\226Q{>\274i\206>]\340];\215\266L\275\324y\232=\220\307\221=xG0>\251I\350\275\234\304\200>\247~L= aZ\274\364#T=A[\310=\221\356\201\275\301\223\254=\020pm=\013\340W\274\234T\353\274\323\001\255<\031\242\020>\027\001S\274?\225L\276\345IG\275\313\226\230>\271\371\301\274\366\325\263>W*\240=3o\025\276\344\035\035>\307sy\275T\203a\276\337\236\326=h\302Y\276\232\323\002\276h\030\026>\206\363\213\275\356\257\277<#rI\276#Q\\\275\303\021\315\275p\275\335<\323\221\023=\317\005)\276D\023\212\275\350h\002\276\340_\235>H\013P>]V\200>j\246\366<\365\310\316<hZ\033\274\334U+>\211<\320<e\034V\275\334\350\243<Mv5\276cNF\275\014\275R>o\221B\276\003\242\262=v\323\351\275\244\322l<\322\020\036\2752*\303=\236=Q\273\274FP=\223J\204\276c\202\236\273\271[H\275\221{h\275\354\373\013>\261\203Z>\200\314\344\275\365\276Y\275\217\021f>\302\245\222\276\330mf>\"\335\265\275\276g\223=\300\216\306\274\274\315\373\275s\'3\275k>\221>\362\2276>5\372+>\000P\325\271\220\342\211\276\316\337\253=\324\377\201\275\253_\245=\353jh>\026v\032=\261{\006\276\332~\207\2752y\000>r\300\261\275\232-l\276EX\032>\\\240\346\274\035\365\355=\241\017\230>\357\363\244\275\253a\013>\356\023d;\001-+\276o\206\201=\360\006t<\255\244,\276\220\3278>\2612h>\326\346\004\275\300\350|>\272\\\276\2751\032\356=\361\226v\275\237\260b>\021\240Z>\337fE>\014nP=3\252\002=^L\251=F\032\266=D\240\023>ENY=\253\304\267>4\274\005>\326\007Y\274\332\2544>Q\266\216>\367\234\237>\256\235\317\274\277[i\274xx\253\274\013\361&=\330\375W>\212\021\264\275=\351b>\340a\236=u\010\376\275\331\036\376=\014\262r>Kk?\276\365\2222=\227\351\355=\207D\220=3)\316\275(\324\241\275\365\355\013\275\273\"\244<\275\0167\276K:\r\275q\220I>\225\266\365\275\324\243\337>\301\013\361\274\330\t\334<\240\262I>u\203\027\2765=%\276\345\357\222>\251L7\276\372\204\\\275m\335~>x\357\016<f\377\202\275\333J$\276*x\316\275z\217\310\275\202\024\223\275\360\301D>\242\256\232\275\014\304\246\275\216\032\227\275g\027M>o\367\207>!\177v>\210;\026\2750\r\013>q,\003\275\362M1>\206\305\221<\013\301\342\275\247\256\233=[\307\343\275\225,\037=}Jo>\242\375\204\276\221\201\367=y\323\235\275\t\347p=\325\004\241\274\345\302\335\275XAu=U\253\221\274\237i\201\276O\021r\276&\232c\276\310bY\276P0\037\276\037\001\236>\353\352\027\276\321\216U=\247\267\201>\016\037\247\276\367\377p>\277\265A\276\226\352\350\273\275\356\020>\350E)\276\302\320Y\276\277V\316>-\331k>^`p=\2151x=\025\251\276\276\304bE=a\023\267=8}Z\276K\263a>(V\305<\345\025\231\275\346w\350\274\322m\214>\006\177\341\275:\211r\276\344\377&>\315\224&<Q\224\201\275\210\025\236>-Z2<\226\202\345>\nQA\276d\006#\275\370E\\=#\255J=\373%\312\275\036\302\263>\237\232\357>\346DH\274Of\374>\245\320\211\276\212}\224=9\363\t\275\273H\302>\215\271J>\2361\223>\026\350\220<\307\277\314\275>\233\315;4\240\017\275\213b\212;\327B\222>p\346)>\000 g>\225\"-\276\306\323\200>\247\366\177<\273\232\256>a\324\227=\363\234\375\275\247\305==R\372 \276\211\211\221>\272z>=\322\251\217\275>\375s\275\354\271S>\222\373\377=T\215\034>.\301\240\275`fF\276\211 \226=\345\204\345;\277\2157\276\340\022a;\320IM=n\362S>\036\272\272\276\334te\276\003\343=>\215\257K\276\3259\330>C\022,\274f\003\254\275nH>>|7X\276\312Y\322\275\322z\273>\350I8\276\217\321\226\275\257\0037>\322\263g=\\\004\202\275D\241\271\275\340f\323\275\223\221\315\274\333\222\005<\365Z\263>Q\354\320\275\242\003t\275qRi\275\036 r>\263\030\n?NO\254>h\372\216\276\304g7\275\212t\305\275N=C>\021Q\036\276\352\211\027>Zp)\275H\2365;?\306\202\275\3040\251>M7f\276\253\007\'>\"\242\023\276\362b\'=`HX\275\205\340\231=+\255\360\273\023\021~\275\210\322\212\276\003z\215\2763\276\022\277\001f\274\276\311\274S\275\"h\273>\332Z\240\276G\251\354\275sV\301>3\342B\276@\262\237>1Cw\275\224\211&\275,[#>\317\2707=7:\037\275\201\317\235>\273\206\224>\217\022\244= 7\306\275\273hF\276\352f\236=X\375\316<\005\352Y\275\221\262\010>\205\315\242\275\023DL;\200\2045<\347\340\222>\325~T\276\207n\324\276\014\202\235=9,\007\275\2749v=c\254\347>H\271Z=\324\371\276>;\336\234\276\275\236\247=t\271\020\276\311\023R=7\020\361:\302~C>\376m\316>Z\357+=\'\222\000?\023\232\206\276\341\354K;\260 \261;\\\345\304>\346\030\205>\227\317\242>\362\034r\276\013>h\275\337\207R\275\016\342\316\274\211\375x\276H3\364>\260\006O=\241\024\325\275\010%\255=\000\246\375=(\306\220\275\376\316\204>\373\210K>\267\261\346\273\"\313\347=\034\212#\276\031\346\234>\326\263*\275\004\345\222\275\006\242(\276\207P9>\000Q@>\t!->\002\273X>\005\351\264\275\261\'\364;\202F\203\275CC\201\276\032g\351;pH5>\2155\304<\016C\264\276A\370\213\276\225\310E>>{!=l\247\212>\023\264>=\\a\026\276\263\2527>\311k\001\276\354\331\333<\375J)>s9\215\275\376\365\024\276\306\\\337>\000\220\032\272-\213\257\274\352\316\032\276\'\005s=`\330p>\341\020\327=em\251>\004l\335=\226]^\274|\225\232\274\243e\220=\314\257\002?/_=>\241\006\233\276\322\3752\276\232\210\370\275\254\365;=+\321\321\275B\261\302=\330x\337\275\373\336\177\276H&q\275\223K\352>\221\231\002\276\332\356~<\357\210\311\276B+\037>\257\334\307=\324\324\350\275\010)\205\276\371\323R\276\347\022\227\276\013\221\261\276\275S\360\276M\352\330\276\3263\r=\267b\002?\254v\275\276\320P\021\276\3039\217>2~5\276\217\203\354>\311\224\013\275\361]\036=\220\252a>\034(\357=.G\225<E\306\300>\275\251\321>&\302\352=\201\267\376<|s\203\276zh\001>\241Z\256\275\225\367\263\274\200H;>\377\364\n\276\030\313k=}E\217=i\245\323>9,\254\276\355\232\274\276eH\273=K\357\007\275\227\316\000>@\224\034?\006V\026\275\305\243K>_\235]\276lRD>\026n\233\276\374\231)=\200\353\032\275\"\305\214>\232I\360>\026hj=\374\232\013?\003\010\220\276\364`\200\276\205p>\274w\237\251>\255\024\313>\274Nm>\360G&\276\364{\204\275#8\305\275\272\374\221\275\214\217\303\275B\326\010?\367\375\320=z\307\031>\020\221\035=\271\273\205\275 F\007\276\032o\255>P%(>\252Wh=\3073W>\262\276\225\276)\031\353>\303\3556\275\242\310J=\3404a\276\235\272\233=n]k;b\273\216>\204>\272>h\215\343\275\200f\272=e\033\026\276\321\347\263\276\235\2556>Jp\016>\370\310\322=k\212\261\276Z2B\276\031z3>\330\264$;8^\355>G\003\367\273\342\240\216\276\317z\201>\021`\353=i\214\227=\014\031\304>LM\267\275(\020\246\276\304o\230> \032\264<e\001\026\2754\000\272\275\000\001\005=/Iw>\035\222|=\215\370\314>\245\3508\274e\005N;\237>9=>\255\261=\354\247\273><\365\320>\300P.\2766\375\301\275\271\005\274\273R\234\271\271\031\203j<\247@K\276\177\366\214\276P\004^\276\275\313\202\275\320\362\354>\250\355\335\275\031\263p=mS\245\276\311E\032\276/\310\236=:\350E\275>#\'\276\315\344\207\276\327\301\315\276\037\355\321\276\343\246\370\2762\245\367\276\203\371_>\237\001\270>n;\002\277\230\036=\275Bf\004>\260\356\203\276\n\352\306>&\332c=\242\253J<\367\010H=X\022O\274\211t8\275\224Z\346>\313\274\332>\273\205\322>3t\242=\'\231\204\276\010$\004>u2\347\2759\232\220\276\037\206\250>\257\237\302=\nb\322<\210\367\276\274\370\232\003?\300\354\271\276\"G\242\276\244\231\312>\221\245_\275\326\304m>\2375F?yn\371\273\207v\255>e\030\345=u\366\247=\"\016\211\2763\022\307=\254\331\344=\225r\310>\261\026\031?\253\006,<A\020\344>\231\207\233\276P\341/\276\244\005\001>\233\311\001?\200\307\356>\306\332\014>]\244\026\276\316\273\307\275\321\367\330\275\010\201\203\276\366\305P=\352\260\366>^2\256>J\305\210>Q\327H\276fo?\276P\345\226=\305\242\314>P]\020>\001\n\001>\263}b>:\027\025\276\347\220\313>{\370\374=6B\216>\253|\232;\0022]\275X\375\267=\253c\222=S\324t>\320\r\341\275\377\315\014=\346t\311\275|\330T\276\347\264\350=\037$_>\333!`>\324\376\332\276\352\0047\276\365\300\007?E@\222\272\340\332\277>\217\224\006\276\324)m\276>\341x><\305\314\275\213\312\t\275A\024\340>2\306\202\276\207\220\237\276\310\236\212>\223\315(\275\036\341\021\275\031\246T\276\314\337\314=A\030\261>\217\014w>E\243\200>\"\247\004>\315\242\322\274[\232=> 63>k\004\335>\262\232\000?\307.d;\341L.<\223d\206=z\357\240=N\356\217=X&z\276\270\246\223=_\206D\276\201\216\007=T\361\204>\237\302\314\276\370k\275=[\234\r\277P+\207\276\350:c\276\262\035\226=\266\236\034\276\213\200g\275\375\267\344\276\321\376!\2775xB\276\r8y\276v\231\246>\222\265\245>#\247\303\276\\\305\254;\306\270\265>*\275\200=<\030\220>P\231\224\275I\316y\275]\002\246=\246\303\t\276;o\267=X\254\263>k\023<=\262h\273>\035\331\240\274\016cy=@\002+>\357\005\364\275\332\017\242\276\307/\230>\235\306\271=p\2249>\340\031\216\2749VJ>gl\247\276\2539\365\275P\370<>\301\330\201\275\020xt>\312\266\">\235\236$\276\331\343\200=\241W\254>e\277\374<\365$V\276\361\365\246>*\2660>\244UR>\231\177\202>bD\347<\271(\265>Q\365\352\275H\006p\276\031\322\233=V\004\231>:7N>o\330\354=\313\023\035\276\3013)\276\243sT\276\006<\006\276*Y\016>})y>3\024\277>\343\300\324>\346\316\375\275\035\210\347\276E\321\212>c\\\n?\004x\201\274\300n/>k\304\037\274R\324)\275\271\3037=\tY?\275\362J\277\274\234;7>\305$\003</:\343;\343p\367=77\203>\310\3002\275\246\303\330=\337\262\222\274\322\260\345\275B_\272\275\263\002\010>\024\030\233=\033\"W\276\344E%\275E\274W>\207\237b\276\324\213\247>\200\177\232<\353\274\343\275,\242\333=U\177.\276\241\254\262<\204\372\320>\010u{<9\274\373\276(\354*=\373\304\214=j\200\234\275\203\267A\276p\237\033\273\234I\221>l=v>\234k\212>\037\262\\=[\322\252\275\246\316\354\274J\276\033>\350\351\261>\377S\252>\365\326\354=\317w\003>\326 